#include "magic_wand_model_data.h"

// We need to keep the data array aligned on some architectures.
#ifdef __has_attribute
#define HAVE_ATTRIBUTE(x) __has_attribute(x)
#else
#define HAVE_ATTRIBUTE(x) 0
#endif
#if HAVE_ATTRIBUTE(aligned) || (defined(__GNUC__) && !defined(__clang__))
#define DATA_ALIGN_ATTRIBUTE __attribute__((aligned(4)))
#else
#define DATA_ALIGN_ATTRIBUTE
#endif

const unsigned char g_magic_wand_model_data[] DATA_ALIGN_ATTRIBUTE = {
  // Paste the data of the char array in `src/model.cc` here
  0x08, 0x00, 0x00, 0x00, 0x54, 0x46, 0x4c, 0x33, 0x62, 0xff, 0xff, 0xff,
  0x03, 0x00, 0x00, 0x00, 0x10, 0x00, 0x00, 0x00, 0x24, 0x00, 0x00, 0x00,
  0x78, 0x00, 0x00, 0x00, 0x24, 0x00, 0x00, 0x00, 0x05, 0x00, 0x00, 0x00,
  0x78, 0x05, 0x00, 0x00, 0xb0, 0x04, 0x00, 0x00, 0xe0, 0x02, 0x00, 0x00,
  0x60, 0x02, 0x00, 0x00, 0x54, 0x01, 0x00, 0x00, 0x01, 0x00, 0x00, 0x00,
  0x78, 0x00, 0x00, 0x00, 0x13, 0x00, 0x00, 0x00, 0x18, 0x30, 0x00, 0x00,
  0x14, 0x30, 0x00, 0x00, 0x20, 0x2f, 0x00, 0x00, 0xa8, 0x2e, 0x00, 0x00,
  0x3c, 0x2e, 0x00, 0x00, 0xec, 0x11, 0x00, 0x00, 0x98, 0x10, 0x00, 0x00,
  0xbc, 0x0e, 0x00, 0x00, 0x60, 0x06, 0x00, 0x00, 0xfc, 0x05, 0x00, 0x00,
  0x78, 0x05, 0x00, 0x00, 0xec, 0x2f, 0x00, 0x00, 0xe8, 0x2f, 0x00, 0x00,
  0xe4, 0x2f, 0x00, 0x00, 0xe0, 0x2f, 0x00, 0x00, 0xdc, 0x2f, 0x00, 0x00,
  0xd8, 0x2f, 0x00, 0x00, 0xd4, 0x2f, 0x00, 0x00, 0xd0, 0x2f, 0x00, 0x00,
  0x0f, 0x00, 0x00, 0x00, 0x4d, 0x4c, 0x49, 0x52, 0x20, 0x43, 0x6f, 0x6e,
  0x76, 0x65, 0x72, 0x74, 0x65, 0x64, 0x2e, 0x00, 0x00, 0x00, 0x0e, 0x00,
  0x18, 0x00, 0x04, 0x00, 0x08, 0x00, 0x0c, 0x00, 0x10, 0x00, 0x14, 0x00,
  0x0e, 0x00, 0x00, 0x00, 0x14, 0x00, 0x00, 0x00, 0x5c, 0x00, 0x00, 0x00,
  0x60, 0x00, 0x00, 0x00, 0x64, 0x00, 0x00, 0x00, 0x84, 0x00, 0x00, 0x00,
  0x12, 0x00, 0x00, 0x00, 0x48, 0x2f, 0x00, 0x00, 0xe4, 0x2e, 0x00, 0x00,
  0x3c, 0x2e, 0x00, 0x00, 0xd8, 0x2d, 0x00, 0x00, 0x70, 0x2d, 0x00, 0x00,
  0x1c, 0x11, 0x00, 0x00, 0xc0, 0x0f, 0x00, 0x00, 0xe4, 0x0d, 0x00, 0x00,
  0xa0, 0x05, 0x00, 0x00, 0x3c, 0x05, 0x00, 0x00, 0xb0, 0x04, 0x00, 0x00,
  0xe8, 0x03, 0x00, 0x00, 0x38, 0x03, 0x00, 0x00, 0xa4, 0x02, 0x00, 0x00,
  0x10, 0x02, 0x00, 0x00, 0x90, 0x01, 0x00, 0x00, 0xfc, 0x00, 0x00, 0x00,
  0x80, 0x00, 0x00, 0x00, 0x01, 0x00, 0x00, 0x00, 0x00, 0x00, 0x00, 0x00,
  0x01, 0x00, 0x00, 0x00, 0x11, 0x00, 0x00, 0x00, 0x08, 0x00, 0x00, 0x00,
  0x1c, 0x04, 0x00, 0x00, 0x58, 0x03, 0x00, 0x00, 0xc8, 0x02, 0x00, 0x00,
  0x24, 0x02, 0x00, 0x00, 0xac, 0x01, 0x00, 0x00, 0x10, 0x01, 0x00, 0x00,
  0x94, 0x00, 0x00, 0x00, 0x10, 0x00, 0x00, 0x00, 0x04, 0x00, 0x00, 0x00,
  0x6d, 0x61, 0x69, 0x6e, 0x00, 0x00, 0x00, 0x00, 0x8e, 0xff, 0xff, 0xff,
  0x00, 0x00, 0x00, 0x09, 0x04, 0x00, 0x00, 0x00, 0x1c, 0x00, 0x00, 0x00,
  0x10, 0x00, 0x00, 0x00, 0x04, 0x00, 0x00, 0x00, 0x0a, 0xd2, 0xff, 0xff,
  0x00, 0x00, 0x80, 0x3f, 0x01, 0x00, 0x00, 0x00, 0x11, 0x00, 0x00, 0x00,
  0x01, 0x00, 0x00, 0x00, 0x10, 0x00, 0x00, 0x00, 0xf6, 0xfb, 0xff, 0xff,
  0x00, 0x00, 0x00, 0x19, 0x01, 0x00, 0x00, 0x00, 0x8a, 0xd1, 0xff, 0xff,
  0x10, 0x00, 0x00, 0x00, 0x12, 0x00, 0x00, 0x00, 0x14, 0x00, 0x00, 0x00,
  0x20, 0x00, 0x00, 0x00, 0x02, 0x00, 0x00, 0x00, 0x01, 0x00, 0x00, 0x00,
  0x04, 0x00, 0x00, 0x00, 0x08, 0x00, 0x00, 0x00, 0x49, 0x64, 0x65, 0x6e,
  0x74, 0x69, 0x74, 0x79, 0x00, 0x00, 0x00, 0x00, 0xc4, 0xd1, 0xff, 0xff,
  0x00, 0x00, 0x0e, 0x00, 0x18, 0x00, 0x08, 0x00, 0x0c, 0x00, 0x10, 0x00,
  0x07, 0x00, 0x14, 0x00, 0x0e, 0x00, 0x00, 0x00, 0x00, 0x00, 0x00, 0x08,
  0x03, 0x00, 0x00, 0x00, 0x18, 0x00, 0x00, 0x00, 0x0c, 0x00, 0x00, 0x00,
  0x04, 0x00, 0x00, 0x00, 0x98, 0xd1, 0xff, 0xff, 0x01, 0x00, 0x00, 0x00,
  0x10, 0x00, 0x00, 0x00, 0x03, 0x00, 0x00, 0x00, 0x0f, 0x00, 0x00, 0x00,
  0x05, 0x00, 0x00, 0x00, 0x02, 0x00, 0x00, 0x00, 0x02, 0xd2, 0xff, 0xff,
  0x10, 0x00, 0x00, 0x00, 0x11, 0x00, 0x00, 0x00, 0x14, 0x00, 0x00, 0x00,
  0x30, 0x00, 0x00, 0x00, 0x02, 0x00, 0x00, 0x00, 0x01, 0x00, 0x00, 0x00,
  0x04, 0x00, 0x00, 0x00, 0x1a, 0x00, 0x00, 0x00, 0x73, 0x65, 0x71, 0x75,
  0x65, 0x6e, 0x74, 0x69, 0x61, 0x6c, 0x2f, 0x64, 0x65, 0x6e, 0x73, 0x65,
  0x5f, 0x31, 0x2f, 0x42, 0x69, 0x61, 0x73, 0x41, 0x64, 0x64, 0x00, 0x00,
  0xf4, 0xd1, 0xff, 0xff, 0xd6, 0xfd, 0xff, 0xff, 0x00, 0x00, 0x00, 0x08,
  0x03, 0x00, 0x00, 0x00, 0x24, 0x00, 0x00, 0x00, 0x18, 0x00, 0x00, 0x00,
  0x0c, 0x00, 0x00, 0x00, 0x00, 0x00, 0x06, 0x00, 0x08, 0x00, 0x07, 0x00,
  0x06, 0x00, 0x00, 0x00, 0x00, 0x00, 0x00, 0x01, 0x01, 0x00, 0x00, 0x00,
  0x0f, 0x00, 0x00, 0x00, 0x03, 0x00, 0x00, 0x00, 0x0e, 0x00, 0x00, 0x00,
  0x04, 0x00, 0x00, 0x00, 0x01, 0x00, 0x00, 0x00, 0xfe, 0xfc, 0xff, 0xff,
  0x00, 0x00, 0x00, 0x09, 0x01, 0x00, 0x00, 0x00, 0x92, 0xd2, 0xff, 0xff,
  0x10, 0x00, 0x00, 0x00, 0x10, 0x00, 0x00, 0x00, 0x14, 0x00, 0x00, 0x00,
  0x2c, 0x00, 0x00, 0x00, 0x02, 0x00, 0x00, 0x00, 0x01, 0x00, 0x00, 0x00,
  0x10, 0x00, 0x00, 0x00, 0x15, 0x00, 0x00, 0x00, 0x73, 0x65, 0x71, 0x75,
  0x65, 0x6e, 0x74, 0x69, 0x61, 0x6c, 0x2f, 0x64, 0x65, 0x6e, 0x73, 0x65,
  0x2f, 0x52, 0x65, 0x6c, 0x75, 0x00, 0x00, 0x00, 0xd8, 0xd2, 0xff, 0xff,
  0x00, 0x00, 0x0a, 0x00, 0x10, 0x00, 0x04, 0x00, 0x08, 0x00, 0x0c, 0x00,
  0x0a, 0x00, 0x00, 0x00, 0x02, 0x00, 0x00, 0x00, 0x10, 0x00, 0x00, 0x00,
  0x04, 0x00, 0x00, 0x00, 0x01, 0x00, 0x00, 0x00, 0x0e, 0x00, 0x00, 0x00,
  0x02, 0x00, 0x00, 0x00, 0x0d, 0x00, 0x00, 0x00, 0x03, 0x00, 0x00, 0x00,
  0x7a, 0xfd, 0xff, 0xff, 0x00, 0x00, 0x00, 0x16, 0x01, 0x00, 0x00, 0x00,
  0x0e, 0xd3, 0xff, 0xff, 0x10, 0x00, 0x00, 0x00, 0x0f, 0x00, 0x00, 0x00,
  0x14, 0x00, 0x00, 0x00, 0x30, 0x00, 0x00, 0x00, 0x02, 0x00, 0x00, 0x00,
  0x01, 0x00, 0x00, 0x00, 0x70, 0x00, 0x00, 0x00, 0x1a, 0x00, 0x00, 0x00,
  0x73, 0x65, 0x71, 0x75, 0x65, 0x6e, 0x74, 0x69, 0x61, 0x6c, 0x2f, 0x66,
  0x6c, 0x61, 0x74, 0x74, 0x65, 0x6e, 0x2f, 0x52, 0x65, 0x73, 0x68, 0x61,
  0x70, 0x65, 0x00, 0x00, 0x00, 0xd3, 0xff, 0xff, 0xe2, 0xfe, 0xff, 0xff,
  0x00, 0x00, 0x00, 0x05, 0x01, 0x00, 0x00, 0x00, 0x38, 0x00, 0x00, 0x00,
  0x2c, 0x00, 0x00, 0x00, 0x14, 0x00, 0x00, 0x00, 0x00, 0x00, 0x0e, 0x00,
  0x14, 0x00, 0x00, 0x00, 0x10, 0x00, 0x0c, 0x00, 0x08, 0x00, 0x04, 0x00,
  0x0e, 0x00, 0x00, 0x00, 0x03, 0x00, 0x00, 0x00, 0x01, 0x00, 0x00, 0x00,
  0x03, 0x00, 0x00, 0x00, 0x01, 0x00, 0x00, 0x00, 0x01, 0x00, 0x00, 0x00,
  0x0d, 0x00, 0x00, 0x00, 0x01, 0x00, 0x00, 0x00, 0x0c, 0x00, 0x00, 0x00,
  0x9e, 0xd3, 0xff, 0xff, 0x10, 0x00, 0x00, 0x00, 0x0e, 0x00, 0x00, 0x00,
  0x1c, 0x00, 0x00, 0x00, 0x40, 0x00, 0x00, 0x00, 0x04, 0x00, 0x00, 0x00,
  0x01, 0x00, 0x00, 0x00, 0x07, 0x00, 0x00, 0x00, 0x01, 0x00, 0x00, 0x00,
  0x10, 0x00, 0x00, 0x00, 0x22, 0x00, 0x00, 0x00, 0x73, 0x65, 0x71, 0x75,
  0x65, 0x6e, 0x74, 0x69, 0x61, 0x6c, 0x2f, 0x6d, 0x61, 0x78, 0x5f, 0x70,
  0x6f, 0x6f, 0x6c, 0x69, 0x6e, 0x67, 0x32, 0x64, 0x5f, 0x31, 0x2f, 0x4d,
  0x61, 0x78, 0x50, 0x6f, 0x6f, 0x6c, 0x00, 0x00, 0xa0, 0xd3, 0xff, 0xff,
  0xc2, 0xfe, 0xff, 0xff, 0x00, 0x00, 0x00, 0x01, 0x24, 0x00, 0x00, 0x00,
  0x18, 0x00, 0x00, 0x00, 0x04, 0x00, 0x00, 0x00, 0xb4, 0xfe, 0xff, 0xff,
  0x01, 0x00, 0x00, 0x00, 0x01, 0x00, 0x00, 0x00, 0x00, 0x00, 0x00, 0x01,
  0x01, 0x00, 0x00, 0x00, 0x0c, 0x00, 0x00, 0x00, 0x03, 0x00, 0x00, 0x00,
  0x0b, 0x00, 0x00, 0x00, 0x07, 0x00, 0x00, 0x00, 0x09, 0x00, 0x00, 0x00,
  0x2e, 0xd4, 0xff, 0xff, 0x10, 0x00, 0x00, 0x00, 0x0d, 0x00, 0x00, 0x00,
  0x1c, 0x00, 0x00, 0x00, 0x2c, 0x00, 0x00, 0x00, 0x04, 0x00, 0x00, 0x00,
  0x01, 0x00, 0x00, 0x00, 0x15, 0x00, 0x00, 0x00, 0x01, 0x00, 0x00, 0x00,
  0x10, 0x00, 0x00, 0x00, 0x0c, 0x00, 0x00, 0x00, 0x74, 0x66, 0x6c, 0x2e,
  0x63, 0x6f, 0x6e, 0x76, 0x5f, 0x32, 0x64, 0x31, 0x00, 0x00, 0x00, 0x00,
  0x74, 0xd4, 0xff, 0xff, 0x00, 0x00, 0x0e, 0x00, 0x1a, 0x00, 0x08, 0x00,
  0x0c, 0x00, 0x10, 0x00, 0x07, 0x00, 0x14, 0x00, 0x0e, 0x00, 0x00, 0x00,
  0x00, 0x00, 0x00, 0x05, 0x01, 0x00, 0x00, 0x00, 0x3c, 0x00, 0x00, 0x00,
  0x30, 0x00, 0x00, 0x00, 0x14, 0x00, 0x00, 0x00, 0x00, 0x00, 0x0e, 0x00,
  0x18, 0x00, 0x17, 0x00, 0x10, 0x00, 0x0c, 0x00, 0x08, 0x00, 0x04, 0x00,
  0x0e, 0x00, 0x00, 0x00, 0x03, 0x00, 0x00, 0x00, 0x03, 0x00, 0x00, 0x00,
  0x03, 0x00, 0x00, 0x00, 0x03, 0x00, 0x00, 0x00, 0x00, 0x00, 0x00, 0x01,
  0x01, 0x00, 0x00, 0x00, 0x0b, 0x00, 0x00, 0x00, 0x01, 0x00, 0x00, 0x00,
  0x0a, 0x00, 0x00, 0x00, 0x46, 0xff, 0xff, 0xff, 0x00, 0x00, 0x00, 0x11,
  0x01, 0x00, 0x00, 0x00, 0xda, 0xd4, 0xff, 0xff, 0x10, 0x00, 0x00, 0x00,
  0x0c, 0x00, 0x00, 0x00, 0x1c, 0x00, 0x00, 0x00, 0x40, 0x00, 0x00, 0x00,
  0x04, 0x00, 0x00, 0x00, 0x01, 0x00, 0x00, 0x00, 0x15, 0x00, 0x00, 0x00,
  0x01, 0x00, 0x00, 0x00, 0x08, 0x00, 0x00, 0x00, 0x20, 0x00, 0x00, 0x00,
  0x73, 0x65, 0x71, 0x75, 0x65, 0x6e, 0x74, 0x69, 0x61, 0x6c, 0x2f, 0x6d,
  0x61, 0x78, 0x5f, 0x70, 0x6f, 0x6f, 0x6c, 0x69, 0x6e, 0x67, 0x32, 0x64,
  0x2f, 0x4d, 0x61, 0x78, 0x50, 0x6f, 0x6f, 0x6c, 0x00, 0x00, 0x00, 0x00,
  0x34, 0xd5, 0xff, 0xff, 0x00, 0x00, 0x0e, 0x00, 0x14, 0x00, 0x00, 0x00,
  0x08, 0x00, 0x0c, 0x00, 0x07, 0x00, 0x10, 0x00, 0x0e, 0x00, 0x00, 0x00,
  0x00, 0x00, 0x00, 0x01, 0x30, 0x00, 0x00, 0x00, 0x24, 0x00, 0x00, 0x00,
  0x10, 0x00, 0x00, 0x00, 0x0c, 0x00, 0x10, 0x00, 0x00, 0x00, 0x04, 0x00,
  0x08, 0x00, 0x0f, 0x00, 0x0c, 0x00, 0x00, 0x00, 0x01, 0x00, 0x00, 0x00,
  0x01, 0x00, 0x00, 0x00, 0x00, 0x00, 0x00, 0x01, 0x01, 0x00, 0x00, 0x00,
  0x0a, 0x00, 0x00, 0x00, 0x03, 0x00, 0x00, 0x00, 0x00, 0x00, 0x00, 0x00,
  0x06, 0x00, 0x00, 0x00, 0x08, 0x00, 0x00, 0x00, 0x00, 0x00, 0x0a, 0x00,
  0x0c, 0x00, 0x07, 0x00, 0x00, 0x00, 0x08, 0x00, 0x0a, 0x00, 0x00, 0x00,
  0x00, 0x00, 0x00, 0x03, 0x01, 0x00, 0x00, 0x00, 0x9e, 0xd5, 0xff, 0xff,
  0x10, 0x00, 0x00, 0x00, 0x0b, 0x00, 0x00, 0x00, 0x1c, 0x00, 0x00, 0x00,
  0x28, 0x00, 0x00, 0x00, 0x04, 0x00, 0x00, 0x00, 0x01, 0x00, 0x00, 0x00,
  0x40, 0x00, 0x00, 0x00, 0x03, 0x00, 0x00, 0x00, 0x08, 0x00, 0x00, 0x00,
  0x0b, 0x00, 0x00, 0x00, 0x74, 0x66, 0x6c, 0x2e, 0x63, 0x6f, 0x6e, 0x76,
  0x5f, 0x32, 0x64, 0x00, 0x88, 0xd5, 0xff, 0xff, 0x7e, 0xd6, 0xff, 0xff,
  0x04, 0x00, 0x00, 0x00, 0x40, 0x00, 0x00, 0x00, 0x43, 0x81, 0x1f, 0x3e,
  0xec, 0x43, 0x54, 0xc0, 0x4f, 0xb7, 0x37, 0xbf, 0x62, 0xed, 0xdb, 0xbf,
  0xa7, 0x69, 0xce, 0x3f, 0x96, 0xd0, 0x51, 0x3c, 0x01, 0x64, 0x8f, 0xbf,
  0x37, 0x21, 0xcb, 0xbd, 0x1a, 0x33, 0xf5, 0xbf, 0x9a, 0x93, 0x65, 0x40,
  0xce, 0xd0, 0x96, 0x3f, 0xc1, 0xdc, 0xeb, 0xbf, 0x35, 0xbf, 0x3c, 0xbf,
  0x7b, 0x55, 0x97, 0xbf, 0xc9, 0x5b, 0x1f, 0xbf, 0x2e, 0x49, 0x03, 0xc0,
  0x26, 0xd6, 0xff, 0xff, 0x10, 0x00, 0x00, 0x00, 0x0a, 0x00, 0x00, 0x00,
  0x10, 0x00, 0x00, 0x00, 0x20, 0x00, 0x00, 0x00, 0x01, 0x00, 0x00, 0x00,
  0x10, 0x00, 0x00, 0x00, 0x0d, 0x00, 0x00, 0x00, 0x73, 0x74, 0x64, 0x2e,
  0x63, 0x6f, 0x6e, 0x73, 0x74, 0x61, 0x6e, 0x74, 0x31, 0x00, 0x00, 0x00,
  0x08, 0xd6, 0xff, 0xff, 0xfe, 0xd6, 0xff, 0xff, 0x04, 0x00, 0x00, 0x00,
  0x20, 0x00, 0x00, 0x00, 0xfb, 0xf3, 0xfc, 0xbf, 0x2b, 0x03, 0xf5, 0xbf,
  0x46, 0xb9, 0x8d, 0xbf, 0xf0, 0x14, 0x27, 0xc0, 0x06, 0x5e, 0xac, 0xbf,
  0xe8, 0xf2, 0xad, 0x3f, 0x93, 0x20, 0x37, 0xbf, 0x60, 0xff, 0xa0, 0xbf,
  0x86, 0xd6, 0xff, 0xff, 0x10, 0x00, 0x00, 0x00, 0x09, 0x00, 0x00, 0x00,
  0x10, 0x00, 0x00, 0x00, 0x20, 0x00, 0x00, 0x00, 0x01, 0x00, 0x00, 0x00,
  0x08, 0x00, 0x00, 0x00, 0x0c, 0x00, 0x00, 0x00, 0x73, 0x74, 0x64, 0x2e,
  0x63, 0x6f, 0x6e, 0x73, 0x74, 0x61, 0x6e, 0x74, 0x00, 0x00, 0x00, 0x00,
  0x68, 0xd6, 0xff, 0xff, 0x5e, 0xd7, 0xff, 0xff, 0x04, 0x00, 0x00, 0x00,
  0x00, 0x08, 0x00, 0x00, 0xf7, 0x0d, 0x3c, 0x3e, 0xa3, 0xe1, 0x8e, 0x3d,
  0x2d, 0x62, 0x4a, 0xbe, 0xf3, 0x84, 0xa4, 0x3e, 0x3a, 0x13, 0x26, 0x3d,
  0x23, 0xe5, 0xb3, 0xbe, 0x20, 0x94, 0x3d, 0xbf, 0x30, 0xba, 0xfa, 0xbe,
  0xae, 0x3a, 0xc6, 0xbe, 0x12, 0x1f, 0x83, 0x3e, 0x4b, 0x91, 0xcd, 0xbd,
  0xf4, 0x5a, 0x80, 0xbd, 0x8d, 0x1a, 0x88, 0xbc, 0x67, 0x50, 0x0d, 0xbe,
  0xba, 0xc3, 0x30, 0xbe, 0x86, 0xda, 0x71, 0xbe, 0xcf, 0x6c, 0x80, 0x3d,
  0xbf, 0x69, 0x3d, 0x3e, 0xfc, 0x17, 0x7f, 0xbd, 0xd0, 0x82, 0xe6, 0x3b,
  0x60, 0xb5, 0x95, 0xbd, 0x84, 0x4b, 0x78, 0x3e, 0x12, 0x72, 0x8a, 0xbd,
  0xc0, 0xda, 0xb7, 0x3d, 0x17, 0xa9, 0xec, 0x3d, 0x04, 0xaa, 0x3f, 0x3e,
  0x4f, 0x53, 0x8b, 0xbe, 0xba, 0xc7, 0x96, 0x3e, 0x26, 0x2d, 0xf7, 0xbd,
  0x53, 0x06, 0x34, 0x3e, 0x44, 0x17, 0xea, 0xbd, 0xf6, 0xfe, 0xc9, 0x3d,
  0x4c, 0x82, 0xe9, 0x3d, 0x6a, 0x68, 0xdd, 0xbc, 0x00, 0xa3, 0x06, 0x3f,
  0x78, 0x8a, 0x4f, 0xbe, 0xaf, 0x86, 0xb4, 0xbd, 0xc8, 0xc4, 0x06, 0x3e,
  0x85, 0x06, 0xb5, 0x3d, 0xe4, 0xeb, 0xb0, 0x3d, 0x17, 0xae, 0x6a, 0x3d,
  0x06, 0x68, 0xff, 0xbc, 0x05, 0x3c, 0x4b, 0xbe, 0xcd, 0xf2, 0xca, 0xbe,
  0x9e, 0xc4, 0x4e, 0xbd, 0xfb, 0x01, 0x74, 0x3d, 0x45, 0xd0, 0x80, 0xbe,
  0x03, 0x0c, 0x46, 0x3d, 0xc8, 0xc6, 0x96, 0x3e, 0xc2, 0x84, 0x8a, 0x3e,
  0x99, 0x5a, 0xd2, 0xbe, 0xbf, 0x46, 0x2e, 0x3e, 0x2e, 0xc5, 0xc6, 0xbc,
  0x97, 0xbd, 0x43, 0xbe, 0x12, 0x60, 0x17, 0xbf, 0x48, 0x50, 0x3d, 0xbd,
  0x93, 0xc5, 0x7e, 0xbe, 0xff, 0x36, 0x62, 0x3e, 0x56, 0x1e, 0xb8, 0xbe,
  0xca, 0x42, 0x4c, 0x3e, 0xb8, 0xf9, 0x8d, 0xbd, 0x98, 0x49, 0x68, 0xbe,
  0x99, 0x4b, 0x81, 0xbe, 0x81, 0x21, 0x79, 0xbd, 0xe8, 0xa3, 0xb2, 0xbd,
  0x15, 0x97, 0x28, 0xbe, 0xab, 0xfb, 0x30, 0x3e, 0x19, 0x52, 0xf1, 0xbe,
  0xce, 0x04, 0x93, 0xbd, 0x8c, 0xdb, 0xad, 0xbe, 0xe8, 0xcb, 0x75, 0xbe,
  0xf5, 0x02, 0x64, 0xbe, 0x7c, 0xa7, 0xa6, 0x3d, 0x1e, 0x38, 0x08, 0xbd,
  0xee, 0x59, 0x8e, 0xbe, 0x08, 0x9e, 0x8f, 0xbd, 0x15, 0x13, 0xce, 0x3c,
  0xfb, 0x45, 0xf4, 0xbd, 0xce, 0x96, 0x81, 0xbd, 0x3d, 0x32, 0x7b, 0xbe,
  0x4a, 0x59, 0xf3, 0x3d, 0x10, 0x75, 0x11, 0x3f, 0xb3, 0xb5, 0xe8, 0xbe,
  0x46, 0xa9, 0xaf, 0x3e, 0xb2, 0xe4, 0x5e, 0xbd, 0xc5, 0x24, 0x61, 0xbe,
  0xb9, 0x6e, 0xaf, 0xbe, 0xc0, 0x9c, 0xcd, 0x3d, 0x54, 0xc6, 0xd3, 0xbe,
  0xa8, 0xa1, 0x1f, 0x3e, 0xf4, 0x5f, 0x8c, 0xbe, 0xce, 0x62, 0x88, 0x3e,
  0xc0, 0xb9, 0x2a, 0xbe, 0xd2, 0xb7, 0xe8, 0x3d, 0x4c, 0x13, 0xa1, 0xbc,
  0xed, 0x56, 0x26, 0x3d, 0x45, 0x60, 0xba, 0xbe, 0xa8, 0x11, 0xbd, 0xba,
  0x4c, 0x34, 0x84, 0xbd, 0x70, 0xa3, 0x6a, 0xbe, 0x2d, 0x40, 0xe9, 0xbd,
  0x52, 0x5d, 0x8a, 0xbb, 0x57, 0xbd, 0x8f, 0xbd, 0xfd, 0x38, 0x84, 0xbe,
  0xbe, 0x87, 0xaf, 0xbd, 0x83, 0xbe, 0x27, 0xbd, 0x66, 0x69, 0x4e, 0x3e,
  0xde, 0x79, 0x47, 0xbe, 0xf8, 0x0a, 0xb9, 0xbd, 0x37, 0xa1, 0x73, 0xbd,
  0x0b, 0xb3, 0x7a, 0xbc, 0xcd, 0x34, 0x00, 0xbe, 0xef, 0x82, 0x86, 0x3e,
  0x07, 0x19, 0xfa, 0x3e, 0xaa, 0x4d, 0x87, 0xbd, 0x0c, 0xbf, 0x28, 0xbe,
  0x24, 0x55, 0x2a, 0xbd, 0x30, 0x22, 0xad, 0x3d, 0x52, 0x01, 0xa3, 0xbd,
  0x4d, 0x98, 0xf9, 0xbd, 0xdd, 0x3b, 0xef, 0x3e, 0x18, 0xd7, 0x1b, 0x3e,
  0x25, 0x1b, 0xbf, 0xbd, 0xe4, 0x82, 0x20, 0x3d, 0xdb, 0x0e, 0x85, 0x3d,
  0xe5, 0x7b, 0xbb, 0xbc, 0xea, 0x4c, 0x06, 0xbe, 0xe9, 0xce, 0x12, 0xbd,
  0xbb, 0x1a, 0x73, 0xbd, 0x24, 0xe9, 0x22, 0x3f, 0xae, 0x13, 0x30, 0xbe,
  0x8f, 0x3d, 0x38, 0xbe, 0x29, 0xde, 0x8e, 0xbe, 0x53, 0x0a, 0x0a, 0xbd,
  0x77, 0x11, 0x25, 0x3e, 0x00, 0x1d, 0x16, 0x3e, 0xb3, 0xf9, 0x48, 0x3b,
  0x13, 0x17, 0x93, 0xbb, 0x49, 0xb4, 0x61, 0xbe, 0xfe, 0x71, 0x70, 0xbe,
  0xc8, 0xeb, 0xa1, 0xbe, 0xc8, 0x1e, 0x10, 0xbd, 0x6f, 0xdc, 0x55, 0xbd,
  0xfb, 0x18, 0x4b, 0x3d, 0xbf, 0xa3, 0xcb, 0xbc, 0x0a, 0x8b, 0x8f, 0x3e,
  0x0a, 0xc3, 0x3b, 0xbe, 0xbb, 0xff, 0xd6, 0xbd, 0x21, 0xbb, 0x9c, 0xbe,
  0x38, 0xd8, 0xc1, 0xbd, 0x7b, 0xee, 0xc9, 0x3d, 0xcc, 0xf8, 0x92, 0x3e,
  0x7f, 0x2e, 0xb5, 0x3d, 0x3b, 0xb8, 0x9d, 0x3d, 0xe2, 0x7c, 0xea, 0xbd,
  0x59, 0xfa, 0x4c, 0xbe, 0xac, 0xf5, 0x75, 0xbe, 0x98, 0x38, 0x0d, 0xbb,
  0xa3, 0xf6, 0x71, 0x3d, 0x09, 0x21, 0xa9, 0x3e, 0xd1, 0x1f, 0xf3, 0xbe,
  0x0b, 0xdc, 0x0e, 0xbe, 0x3c, 0x82, 0x1c, 0xbe, 0x74, 0x85, 0x94, 0xbe,
  0x23, 0x0f, 0x49, 0xbe, 0x8c, 0xda, 0x6a, 0xbe, 0x47, 0xd1, 0x29, 0xbe,
  0xb1, 0x59, 0xca, 0xbe, 0x6b, 0xd2, 0xfa, 0x3d, 0x7d, 0x23, 0x11, 0x3d,
  0x36, 0x88, 0xd3, 0x3d, 0x9a, 0xed, 0x32, 0xbe, 0x40, 0x04, 0x73, 0x3d,
  0x8b, 0x7b, 0xc3, 0x3e, 0xe7, 0xd9, 0xe3, 0xbb, 0xa7, 0xad, 0xc2, 0x3d,
  0x49, 0x62, 0x75, 0xbe, 0xca, 0x6c, 0x08, 0xbf, 0xc5, 0x56, 0xcb, 0x3d,
  0xdb, 0x96, 0xf3, 0xbc, 0xfc, 0x16, 0x59, 0xbd, 0x41, 0x81, 0x20, 0xbe,
  0x6f, 0x5b, 0x76, 0xbd, 0xe5, 0x97, 0x20, 0xbe, 0xe0, 0x3d, 0x48, 0x3d,
  0xde, 0xe9, 0x76, 0xbe, 0x76, 0xcf, 0x83, 0x3d, 0x21, 0xe0, 0x2a, 0x3d,
  0x78, 0x3a, 0xa0, 0xbb, 0xe9, 0x5a, 0x2a, 0x3d, 0x4f, 0x77, 0x0c, 0xbe,
  0xbf, 0x85, 0x91, 0xbd, 0x1f, 0x61, 0x26, 0xbd, 0xb3, 0x23, 0x83, 0xb9,
  0xa4, 0xe5, 0x1f, 0xbe, 0xaf, 0xf5, 0xae, 0xbd, 0x48, 0x6f, 0xb4, 0xbd,
  0x8d, 0x33, 0xec, 0xbd, 0xda, 0x29, 0x69, 0xbd, 0x06, 0xaf, 0x72, 0xbe,
  0x36, 0x29, 0x43, 0xbd, 0x14, 0x0f, 0x82, 0xbd, 0x7d, 0x7e, 0x17, 0xbe,
  0x82, 0x35, 0xdb, 0xbd, 0x70, 0xed, 0x94, 0xbd, 0xa8, 0x75, 0x40, 0xbe,
  0xa4, 0x82, 0xf4, 0xbd, 0x84, 0x1d, 0x97, 0xbe, 0x35, 0xdc, 0x86, 0x3e,
  0xf0, 0x5d, 0x26, 0x3f, 0x42, 0x99, 0xb0, 0xbd, 0xf5, 0x73, 0x6b, 0x3d,
  0x45, 0xdf, 0x4c, 0xbd, 0xee, 0x44, 0x31, 0xbe, 0x62, 0x7a, 0x82, 0xbc,
  0xdb, 0x3e, 0x2e, 0x3d, 0x04, 0x36, 0xe5, 0x3e, 0x20, 0xfa, 0xb0, 0x3e,
  0xab, 0xaa, 0x5f, 0x3d, 0xef, 0x0f, 0x32, 0xbc, 0x19, 0x59, 0xf7, 0x3d,
  0x85, 0x0d, 0x47, 0xbd, 0xb3, 0x63, 0xeb, 0x3d, 0x07, 0x63, 0xeb, 0xbd,
  0x8b, 0xd4, 0x92, 0xbd, 0x9c, 0xfd, 0xac, 0x3d, 0x2a, 0x81, 0xdd, 0x3e,
  0xac, 0x89, 0x67, 0x3d, 0x58, 0xa2, 0xc8, 0xbc, 0x6a, 0x21, 0x6f, 0xbe,
  0xaf, 0xf0, 0x02, 0xbd, 0x69, 0x5d, 0xd7, 0xbc, 0xac, 0xa1, 0x89, 0xbe,
  0x39, 0x58, 0xc7, 0xbd, 0xea, 0x0e, 0x9d, 0xbd, 0x36, 0x3f, 0xd9, 0xbc,
  0xbe, 0xa5, 0xcc, 0xbc, 0x2f, 0x3f, 0x74, 0xbe, 0x67, 0xdb, 0x9c, 0xbc,
  0x5c, 0x50, 0xac, 0x3e, 0xc4, 0xb1, 0x5f, 0xbe, 0xb8, 0x02, 0x82, 0xbd,
  0x9f, 0x0b, 0x59, 0xbc, 0x54, 0x26, 0x1b, 0xbd, 0xa7, 0x0d, 0xa7, 0xbc,
  0x18, 0xa5, 0x08, 0xbe, 0x4a, 0x23, 0x22, 0xbc, 0x60, 0x7d, 0xb9, 0x3e,
  0xbf, 0x6c, 0xbe, 0xbb, 0xe3, 0x6a, 0xa5, 0xbd, 0x93, 0x90, 0x78, 0x3c,
  0x42, 0x77, 0x4c, 0xbd, 0xbf, 0x37, 0x0a, 0xbd, 0x7a, 0xf1, 0x01, 0xbe,
  0x2f, 0xea, 0x50, 0x3d, 0x98, 0x48, 0xbb, 0x3d, 0x42, 0x87, 0xda, 0xbe,
  0x0e, 0x86, 0x9b, 0xbe, 0x59, 0x89, 0x92, 0xbd, 0x9e, 0x71, 0x97, 0xbe,
  0x4b, 0x46, 0x06, 0xbe, 0x31, 0xeb, 0xfa, 0xbd, 0xa1, 0x11, 0xe5, 0xbd,
  0xca, 0xef, 0x44, 0xbe, 0x52, 0x48, 0xbf, 0xbe, 0xd2, 0xab, 0x0a, 0xbe,
  0x0d, 0xcc, 0xc4, 0xbd, 0x18, 0x75, 0xc1, 0xbd, 0x28, 0xb4, 0x44, 0xbe,
  0xb9, 0xbf, 0xc8, 0xbd, 0xc6, 0x56, 0x41, 0x3c, 0xca, 0xea, 0x79, 0xbe,
  0xab, 0xd3, 0x77, 0xbd, 0x03, 0x75, 0x1d, 0x3e, 0x49, 0x78, 0x4e, 0xbd,
  0x75, 0x49, 0x52, 0x3d, 0x9b, 0x64, 0x9b, 0xbd, 0x26, 0x11, 0xc6, 0x3d,
  0xc2, 0xce, 0xc9, 0x3d, 0x27, 0xe1, 0x4b, 0x3e, 0x4a, 0x82, 0x81, 0x3e,
  0x7c, 0x30, 0x1d, 0xbd, 0xf2, 0xbf, 0xed, 0x3d, 0x48, 0x3d, 0x7e, 0x3c,
  0x10, 0x66, 0xbd, 0xbb, 0xe5, 0x9b, 0xb2, 0x3e, 0xe7, 0xd6, 0x7d, 0x3b,
  0xb6, 0xa3, 0xc4, 0x3e, 0x2a, 0xfa, 0x80, 0x3e, 0xdb, 0x92, 0x53, 0x3d,
  0xff, 0x6b, 0xe3, 0xbd, 0x9a, 0xcc, 0x19, 0xbe, 0xb7, 0x44, 0x6d, 0xbe,
  0x84, 0xa7, 0xb7, 0x3e, 0xf7, 0x28, 0x8d, 0xbe, 0x76, 0xdf, 0x2a, 0x3e,
  0x6a, 0xe9, 0x5a, 0x3e, 0xbb, 0x46, 0x87, 0xbe, 0x83, 0xa6, 0xda, 0xbd,
  0xd3, 0x5f, 0x92, 0xbe, 0x55, 0x83, 0x1a, 0xbe, 0xb9, 0x6d, 0x40, 0xbc,
  0x7a, 0x5d, 0x89, 0xbe, 0x5d, 0x4a, 0xe6, 0x3c, 0x3d, 0x53, 0x49, 0xbe,
  0x5f, 0xf2, 0x64, 0xbe, 0xfb, 0x1c, 0x54, 0x3d, 0x9c, 0x2e, 0x09, 0xbe,
  0x73, 0x03, 0x8e, 0xbd, 0x38, 0x0c, 0x14, 0xbf, 0x09, 0x57, 0x86, 0xbe,
  0x53, 0xde, 0x47, 0xbe, 0x85, 0x0e, 0x4e, 0xbe, 0x9f, 0x0e, 0xac, 0x3c,
  0xfa, 0xcf, 0x39, 0x3e, 0x7c, 0x7c, 0x34, 0x3d, 0xd7, 0x2f, 0x84, 0xbd,
  0xe5, 0xda, 0x0c, 0xbe, 0x3b, 0x17, 0x70, 0x3e, 0x11, 0xba, 0x45, 0xbd,
  0xa1, 0x85, 0x07, 0xbe, 0x95, 0x0a, 0x66, 0xbe, 0xa9, 0xb0, 0x3f, 0xbd,
  0x66, 0xcc, 0xad, 0xbc, 0xc4, 0x1e, 0x51, 0x3d, 0xe1, 0x67, 0x30, 0xbf,
  0x03, 0x23, 0x8f, 0xbe, 0x68, 0xae, 0xb2, 0x3d, 0x9d, 0xab, 0x99, 0xbe,
  0xe5, 0x42, 0xb5, 0xbe, 0x34, 0x42, 0x17, 0xbd, 0x31, 0xb5, 0x69, 0x3d,
  0xd7, 0x07, 0xc1, 0x3b, 0x02, 0x56, 0x97, 0xbf, 0xff, 0xaf, 0xea, 0xbe,
  0x8a, 0x48, 0x55, 0xbc, 0x80, 0x3e, 0x67, 0xbe, 0xd2, 0x65, 0x94, 0xbd,
  0x00, 0xec, 0x4d, 0xbd, 0x31, 0x80, 0x98, 0x3e, 0x3e, 0x98, 0xc6, 0x3c,
  0x89, 0x58, 0xcc, 0xbf, 0x69, 0x83, 0x86, 0xbe, 0xc1, 0xba, 0x6c, 0x3e,
  0x7b, 0xfc, 0xcd, 0x3d, 0xee, 0x2d, 0x95, 0x3e, 0x5e, 0x26, 0x36, 0x3d,
  0xf3, 0xb0, 0x7a, 0xbe, 0xdc, 0xef, 0xc6, 0x3b, 0x07, 0x63, 0x33, 0xbf,
  0xf6, 0xb2, 0xf1, 0x3e, 0xc7, 0x8d, 0xf9, 0x3d, 0xd8, 0x70, 0x4d, 0x3d,
  0x56, 0x8a, 0x97, 0xbd, 0x84, 0x3a, 0x1b, 0x3e, 0x54, 0xb9, 0x06, 0x3f,
  0x64, 0x5d, 0xae, 0xbd, 0x52, 0xc3, 0x6a, 0x3c, 0xb6, 0x2b, 0xa7, 0x3e,
  0x8e, 0x1e, 0x73, 0x3d, 0x9a, 0x6d, 0x03, 0x3e, 0x65, 0x01, 0x23, 0xbe,
  0xc0, 0x41, 0x91, 0xbd, 0xed, 0xf9, 0x77, 0xbe, 0xbf, 0x30, 0xbe, 0xbd,
  0xf5, 0x34, 0x92, 0x3c, 0x83, 0x8a, 0x9f, 0xbd, 0x14, 0x72, 0xe3, 0x3e,
  0xcf, 0x6f, 0xc9, 0x3d, 0x22, 0x9a, 0x5f, 0xbe, 0x5c, 0x71, 0x6e, 0xbd,
  0x55, 0xdf, 0x55, 0xbe, 0x54, 0xf8, 0x60, 0xbd, 0x33, 0xdd, 0xe6, 0xbc,
  0x79, 0x4c, 0x93, 0xbd, 0x0d, 0x61, 0x42, 0xbe, 0xc5, 0x4f, 0xcd, 0xbe,
  0x24, 0x3d, 0xa7, 0xbe, 0x99, 0xb3, 0xb2, 0xbd, 0x72, 0xf7, 0xd7, 0xbd,
  0x7a, 0x42, 0xbb, 0xbd, 0x92, 0x86, 0x8f, 0xbd, 0xc8, 0x3f, 0xa2, 0xbd,
  0x1d, 0xfa, 0xd2, 0xbd, 0x35, 0x79, 0xd2, 0x3c, 0xca, 0x90, 0xaf, 0x3d,
  0xcb, 0x72, 0x03, 0xbd, 0x8f, 0x1f, 0xc4, 0x3d, 0x03, 0xdf, 0xc0, 0x3b,
  0xfd, 0x54, 0x08, 0x3f, 0x88, 0xd3, 0x8f, 0x3d, 0x94, 0x10, 0x88, 0xbd,
  0xa0, 0x6c, 0x01, 0xbd, 0x69, 0x83, 0x06, 0xbc, 0x13, 0xa6, 0x9e, 0xbd,
  0xb9, 0x98, 0xd3, 0xbd, 0x77, 0x25, 0x0e, 0xbd, 0x15, 0xe3, 0x0b, 0xbc,
  0xb5, 0x87, 0x04, 0xbd, 0x4c, 0x8e, 0xb3, 0x3d, 0x10, 0xcb, 0xb5, 0x3d,
  0x22, 0xcb, 0x3e, 0xbe, 0x94, 0x5b, 0xa7, 0xbc, 0x35, 0xaa, 0xd5, 0xba,
  0x0a, 0xba, 0x4a, 0xbb, 0x87, 0xb0, 0x7b, 0xbd, 0x39, 0x35, 0x56, 0xbd,
  0x55, 0x20, 0xeb, 0x3d, 0xf2, 0x1f, 0xc5, 0xbd, 0x0f, 0xf7, 0xeb, 0xbc,
  0xe1, 0x7d, 0x6b, 0xbd, 0x2c, 0x2d, 0x28, 0x3c, 0x4d, 0xea, 0x3d, 0xbd,
  0x8e, 0x09, 0x04, 0xbe, 0xe4, 0xf2, 0x90, 0xbd, 0x53, 0x19, 0xc1, 0x3c,
  0x1f, 0xb2, 0x0c, 0xbe, 0xd8, 0x5a, 0x17, 0x3b, 0xc3, 0x07, 0x40, 0xbe,
  0xe0, 0x8e, 0x43, 0xbe, 0xb0, 0xdd, 0xb8, 0xbe, 0x59, 0xe8, 0x2e, 0xbd,
  0x96, 0x22, 0x31, 0xbd, 0x1c, 0x45, 0x49, 0xbe, 0xa7, 0x3a, 0xae, 0x3d,
  0x6c, 0xc1, 0x71, 0xbd, 0x56, 0xa5, 0x93, 0x3d, 0xed, 0xd9, 0x8d, 0x3e,
  0xcf, 0x97, 0xaf, 0xbe, 0x6c, 0xb1, 0x09, 0xbd, 0x12, 0xec, 0xe9, 0x3e,
  0x90, 0x18, 0x86, 0x3e, 0x67, 0xd1, 0x2d, 0x3e, 0xa5, 0xf1, 0xe1, 0x3d,
  0x7e, 0xed, 0x40, 0x3a, 0x98, 0x56, 0x20, 0xbe, 0xe7, 0xe9, 0x75, 0xbe,
  0x41, 0x0e, 0x63, 0x3d, 0x28, 0xf8, 0xb3, 0xbd, 0x3b, 0x59, 0xe9, 0x3d,
  0x22, 0x5e, 0x2e, 0x3e, 0xdd, 0xfd, 0xa2, 0xbc, 0x5e, 0x3c, 0x0d, 0xbd,
  0x40, 0x85, 0x94, 0xbe, 0x6c, 0xd1, 0x88, 0xbe, 0xc6, 0xf0, 0xb5, 0x3c,
  0x03, 0xb3, 0x1d, 0xbe, 0xf0, 0x1b, 0x83, 0x3e, 0x13, 0xe1, 0xa9, 0x3d,
  0xf6, 0x55, 0xb0, 0xbc, 0x36, 0x89, 0x38, 0x3d, 0xf3, 0x20, 0xec, 0x3e,
  0xfc, 0xbf, 0x07, 0x3e, 0x00, 0x09, 0xd9, 0xbd, 0x11, 0x36, 0x6e, 0xbe,
  0xb0, 0x50, 0x1c, 0xbe, 0x3e, 0x1c, 0x44, 0x3c, 0xb4, 0x6a, 0x78, 0xbd,
  0xe9, 0x64, 0xdc, 0x3a, 0x75, 0x66, 0x94, 0x3d, 0x68, 0x0c, 0x37, 0xbd,
  0xab, 0x15, 0x3b, 0xbe, 0xff, 0x44, 0x5c, 0xbe, 0x46, 0x26, 0xca, 0xbc,
  0xe2, 0x0c, 0x89, 0xbd, 0x22, 0xef, 0xa7, 0xbd, 0xc3, 0x5a, 0xf0, 0x3d,
  0x7a, 0x16, 0x82, 0x3d, 0xbc, 0xaa, 0x02, 0xbd, 0xac, 0x67, 0x1d, 0xbe,
  0x6e, 0xca, 0xe5, 0xbd, 0xf2, 0x47, 0x38, 0xbd, 0xb7, 0x53, 0x09, 0x3d,
  0x9d, 0x35, 0x33, 0x3e, 0x79, 0x35, 0x31, 0xbd, 0x80, 0xda, 0x23, 0x3c,
  0x19, 0xe5, 0xa0, 0xbd, 0xf2, 0x25, 0x43, 0xbd, 0x67, 0x5d, 0x0a, 0xbe,
  0xa4, 0x82, 0xe9, 0x3d, 0x65, 0xd1, 0xb6, 0x3d, 0x48, 0x27, 0x99, 0xbd,
  0x9e, 0x21, 0xc2, 0xbd, 0xa0, 0x39, 0x98, 0x3e, 0xcb, 0xe1, 0x42, 0xbd,
  0xc5, 0xd4, 0x6a, 0xbe, 0xdf, 0x5b, 0x84, 0xbe, 0xa5, 0xdf, 0xa0, 0xbe,
  0x7d, 0x7d, 0x0e, 0xbf, 0x98, 0x00, 0x77, 0x3c, 0x5e, 0x70, 0x81, 0xbc,
  0xf4, 0x5c, 0xa7, 0xbc, 0x26, 0x10, 0x93, 0xbd, 0xe9, 0xd9, 0xb9, 0x3b,
  0x4e, 0x1f, 0x2b, 0xbd, 0xad, 0x47, 0x61, 0xbd, 0x27, 0x90, 0xa9, 0xbd,
  0x8f, 0x1c, 0x27, 0x3c, 0x8b, 0x73, 0xd8, 0xbc, 0xa0, 0xc7, 0x5d, 0xbd,
  0x08, 0x44, 0xb6, 0xbd, 0xb9, 0xf9, 0xd1, 0x3c, 0xf3, 0x3f, 0x02, 0xbd,
  0x3c, 0x80, 0x62, 0x3f, 0xc9, 0x7c, 0xaf, 0xbd, 0xb2, 0x35, 0x00, 0x3e,
  0xd2, 0x3d, 0xb2, 0xbc, 0x17, 0x4b, 0xc8, 0xbd, 0x73, 0xee, 0xe0, 0xbd,
  0x9b, 0x5f, 0xc7, 0x3c, 0x67, 0xc6, 0x4b, 0xbd, 0xb9, 0x54, 0x2f, 0xbe,
  0xc6, 0xde, 0xff, 0xff, 0x10, 0x00, 0x00, 0x00, 0x08, 0x00, 0x00, 0x00,
  0x1c, 0x00, 0x00, 0x00, 0x38, 0x00, 0x00, 0x00, 0x04, 0x00, 0x00, 0x00,
  0x10, 0x00, 0x00, 0x00, 0x04, 0x00, 0x00, 0x00, 0x01, 0x00, 0x00, 0x00,
  0x08, 0x00, 0x00, 0x00, 0x1a, 0x00, 0x00, 0x00, 0x73, 0x65, 0x71, 0x75,
  0x65, 0x6e, 0x74, 0x69, 0x61, 0x6c, 0x2f, 0x63, 0x6f, 0x6e, 0x76, 0x32,
  0x64, 0x5f, 0x31, 0x2f, 0x43, 0x6f, 0x6e, 0x76, 0x32, 0x44, 0x00, 0x00,
  0xc0, 0xde, 0xff, 0xff, 0xb6, 0xdf, 0xff, 0xff, 0x04, 0x00, 0x00, 0x00,
  0x80, 0x01, 0x00, 0x00, 0xab, 0x04, 0x80, 0x3e, 0xb7, 0xce, 0x21, 0x3e,
  0x31, 0xbc, 0x33, 0xbd, 0xdf, 0x37, 0xa2, 0x3e, 0xa4, 0x95, 0xee, 0x3d,
  0x6c, 0xfd, 0xdd, 0x3d, 0x57, 0x4c, 0x20, 0xbe, 0x15, 0x06, 0xf6, 0xbd,
  0xfa, 0xf5, 0x13, 0xbc, 0x9a, 0x0b, 0xc6, 0xbe, 0x6d, 0x8d, 0x1c, 0xbe,
  0xbe, 0xe3, 0x50, 0x3d, 0x66, 0x64, 0xa1, 0xbe, 0xb5, 0x58, 0xbd, 0x3e,
  0x27, 0x63, 0x01, 0xbd, 0x68, 0x29, 0xb3, 0x3e, 0xb7, 0x87, 0xdf, 0xbd,
  0x8f, 0xe5, 0x9e, 0xbe, 0x4e, 0xb2, 0xa4, 0xbb, 0x93, 0x36, 0x10, 0xbe,
  0xef, 0xfb, 0x8f, 0x3e, 0xaa, 0x62, 0x9b, 0x3c, 0x19, 0xb9, 0xc0, 0xbd,
  0x60, 0xaa, 0xe6, 0x3d, 0x5e, 0x31, 0xb1, 0xbc, 0xb1, 0x4a, 0xda, 0xbd,
  0x84, 0x0d, 0xde, 0x3d, 0x89, 0xfb, 0x43, 0xbc, 0xa0, 0x4b, 0x04, 0xbc,
  0x71, 0x98, 0xec, 0xbb, 0x83, 0x5e, 0x7f, 0x3e, 0x6c, 0xfa, 0xa2, 0x3a,
  0x57, 0x61, 0x43, 0x3e, 0x73, 0x31, 0x59, 0x3e, 0x52, 0x51, 0xe7, 0x3c,
  0x58, 0x20, 0x95, 0xbd, 0xa8, 0xf6, 0x82, 0xbe, 0x52, 0xa6, 0xd0, 0x3d,
  0x0f, 0xd5, 0x73, 0xbc, 0xc2, 0x37, 0x2b, 0xbe, 0x27, 0x29, 0x4d, 0xbd,
  0x94, 0xbd, 0x1f, 0xbe, 0x05, 0x3a, 0xf3, 0x3d, 0x44, 0xda, 0x52, 0xbd,
  0xf8, 0xfc, 0xb0, 0x3d, 0x4f, 0xd6, 0x99, 0x3e, 0x8f, 0xd2, 0x21, 0x3e,
  0xc8, 0x4a, 0x4d, 0x3e, 0x1f, 0xc1, 0x24, 0xbd, 0xdb, 0x2a, 0xfc, 0x3c,
  0x7b, 0x6b, 0x21, 0x3e, 0xc8, 0x19, 0xed, 0xbd, 0x64, 0x09, 0x80, 0x3d,
  0xba, 0x26, 0x27, 0x3d, 0x81, 0x82, 0x1d, 0x3d, 0x4d, 0xd6, 0x54, 0x3d,
  0x6e, 0x75, 0x38, 0xbc, 0x61, 0x50, 0x38, 0xbd, 0x28, 0x32, 0x0a, 0x3e,
  0xde, 0x07, 0xa2, 0x3c, 0xbe, 0x74, 0x1e, 0x3e, 0xdb, 0x29, 0xb2, 0xbe,
  0xeb, 0xba, 0x80, 0x3e, 0xed, 0xcc, 0x79, 0x3d, 0x0c, 0xf5, 0xae, 0x3e,
  0x86, 0xc7, 0x1b, 0xbd, 0x9c, 0xdb, 0x07, 0x3e, 0x8e, 0x70, 0x2f, 0x3e,
  0xa6, 0x2d, 0x9f, 0x3d, 0xb3, 0x34, 0x95, 0xbd, 0x5b, 0x11, 0x38, 0x3e,
  0x65, 0x39, 0x01, 0xbe, 0xd0, 0x90, 0xd1, 0x3d, 0xd2, 0x9e, 0xbb, 0xbd,
  0x2e, 0xa6, 0xb0, 0x3d, 0xa5, 0xb5, 0x8a, 0xbe, 0x62, 0x34, 0x74, 0xbe,
  0xb7, 0xe3, 0xf7, 0x3d, 0xb0, 0x37, 0xcf, 0x3e, 0x1d, 0xca, 0x2e, 0x3e,
  0x99, 0x60, 0x98, 0xbd, 0x0f, 0xe1, 0x81, 0x3e, 0x9f, 0xc0, 0x60, 0x3e,
  0xcb, 0x18, 0x4e, 0xbe, 0x01, 0x2c, 0xc4, 0xbd, 0xce, 0x2f, 0xa4, 0xbe,
  0x03, 0x0c, 0xc1, 0xbe, 0x50, 0x7d, 0xf6, 0x3e, 0x6a, 0x55, 0x72, 0x3e,
  0xbe, 0x67, 0x80, 0x3e, 0xf8, 0xc7, 0x1a, 0xbe, 0x19, 0xc6, 0x7f, 0x3e,
  0x49, 0xc9, 0x21, 0x3e, 0x1a, 0x38, 0x2a, 0xbd, 0xeb, 0x2c, 0x3c, 0xbc,
  0xc8, 0x2a, 0xa2, 0x3c, 0x9e, 0xe0, 0xff, 0xff, 0x10, 0x00, 0x00, 0x00,
  0x07, 0x00, 0x00, 0x00, 0x1c, 0x00, 0x00, 0x00, 0x38, 0x00, 0x00, 0x00,
  0x04, 0x00, 0x00, 0x00, 0x08, 0x00, 0x00, 0x00, 0x04, 0x00, 0x00, 0x00,
  0x03, 0x00, 0x00, 0x00, 0x01, 0x00, 0x00, 0x00, 0x18, 0x00, 0x00, 0x00,
  0x73, 0x65, 0x71, 0x75, 0x65, 0x6e, 0x74, 0x69, 0x61, 0x6c, 0x2f, 0x63,
  0x6f, 0x6e, 0x76, 0x32, 0x64, 0x2f, 0x43, 0x6f, 0x6e, 0x76, 0x32, 0x44,
  0x00, 0x00, 0x00, 0x00, 0x98, 0xe0, 0xff, 0xff, 0x8e, 0xe1, 0xff, 0xff,
  0x04, 0x00, 0x00, 0x00, 0x00, 0x01, 0x00, 0x00, 0xa8, 0xc7, 0x64, 0xbd,
  0x27, 0xf7, 0x72, 0x3e, 0x83, 0x05, 0xd6, 0x3e, 0x22, 0xf3, 0xe4, 0x3d,
  0x05, 0x10, 0x85, 0x3d, 0x57, 0x53, 0x8a, 0x3d, 0xdf, 0xc7, 0x29, 0xbe,
  0xbd, 0xac, 0x32, 0xbd, 0xd7, 0xdb, 0x45, 0x3e, 0x0b, 0x06, 0x83, 0xbe,
  0x93, 0xa9, 0xbc, 0x3e, 0x2b, 0xcb, 0x67, 0xbd, 0x87, 0x63, 0xab, 0x3e,
  0xfb, 0x70, 0x54, 0x3f, 0x4f, 0xab, 0xc2, 0xbd, 0x31, 0x3c, 0xc9, 0xbe,
  0xf8, 0xf2, 0xf6, 0xbc, 0x7d, 0x02, 0x8c, 0x3e, 0x27, 0xe2, 0xad, 0x3e,
  0x98, 0xf6, 0x60, 0x3e, 0x16, 0x6b, 0xf1, 0x3d, 0x2b, 0x22, 0xaa, 0xbc,
  0x09, 0xf9, 0x59, 0xbe, 0xa6, 0x49, 0xc2, 0xbd, 0x5a, 0x21, 0x59, 0x3e,
  0x3b, 0x43, 0x93, 0xbe, 0x26, 0x09, 0x6a, 0xbf, 0x17, 0xca, 0x6a, 0xbd,
  0xda, 0x57, 0xb6, 0x3e, 0xe2, 0x06, 0xd0, 0xbe, 0x84, 0x89, 0x3f, 0xbd,
  0x22, 0x2f, 0x9d, 0xbe, 0x60, 0xa5, 0xe0, 0xbd, 0x05, 0xfa, 0x15, 0x3e,
  0x2a, 0xc8, 0xe2, 0x3e, 0xf5, 0xb8, 0xe0, 0xbd, 0x96, 0x54, 0x31, 0xbe,
  0x81, 0x7f, 0xbc, 0x3c, 0x06, 0xd8, 0x69, 0xbe, 0x27, 0x43, 0xbe, 0xbd,
  0x6b, 0x1a, 0x0b, 0x3d, 0xdc, 0xaa, 0x27, 0xbe, 0x32, 0x7e, 0x97, 0xbf,
  0x8b, 0xee, 0x1a, 0xbe, 0xa9, 0x8d, 0x69, 0x3e, 0x01, 0x3b, 0x5d, 0xbf,
  0x60, 0x93, 0xda, 0xbd, 0x4b, 0x77, 0xf7, 0xbe, 0x97, 0x60, 0x88, 0x3b,
  0x86, 0x79, 0x3d, 0x3e, 0xa6, 0xd5, 0xab, 0x3e, 0xc9, 0x0e, 0x68, 0x3e,
  0xf5, 0xfa, 0x23, 0x3d, 0x38, 0x19, 0x2d, 0xbb, 0xbe, 0x63, 0x53, 0xbe,
  0xd8, 0x3b, 0xf3, 0xbd, 0xb6, 0xe9, 0x1a, 0x3e, 0x2e, 0x2e, 0x8c, 0xbe,
  0xc1, 0xd2, 0x19, 0xbf, 0x05, 0x90, 0xef, 0xbc, 0x09, 0x99, 0x31, 0xbd,
  0x23, 0xae, 0x46, 0xbd, 0xe5, 0xb4, 0x0e, 0xbe, 0xe8, 0xde, 0x95, 0xbe,
  0xf6, 0xe1, 0xff, 0xff, 0x10, 0x00, 0x00, 0x00, 0x06, 0x00, 0x00, 0x00,
  0x14, 0x00, 0x00, 0x00, 0x30, 0x00, 0x00, 0x00, 0x02, 0x00, 0x00, 0x00,
  0x04, 0x00, 0x00, 0x00, 0x10, 0x00, 0x00, 0x00, 0x19, 0x00, 0x00, 0x00,
  0x73, 0x65, 0x71, 0x75, 0x65, 0x6e, 0x74, 0x69, 0x61, 0x6c, 0x2f, 0x64,
  0x65, 0x6e, 0x73, 0x65, 0x5f, 0x31, 0x2f, 0x4d, 0x61, 0x74, 0x4d, 0x75,
  0x6c, 0x00, 0x00, 0x00, 0xe8, 0xe1, 0xff, 0xff, 0xde, 0xe2, 0xff, 0xff,
  0x04, 0x00, 0x00, 0x00, 0x00, 0x1c, 0x00, 0x00, 0x2a, 0x18, 0x0c, 0x3e,
  0x42, 0x5d, 0x22, 0xbe, 0x1b, 0x38, 0x0f, 0x3b, 0x57, 0x51, 0x79, 0xbe,
  0xd8, 0x94, 0x71, 0x3d, 0xc1, 0xd7, 0x2f, 0x3e, 0x45, 0x47, 0xb2, 0xbe,
  0x1c, 0xe4, 0x78, 0x3e, 0x73, 0xa1, 0x20, 0x3c, 0x2c, 0xe8, 0xab, 0x3d,
  0x3d, 0x7b, 0x9b, 0x3e, 0xc6, 0x7a, 0x44, 0xbe, 0x4e, 0x1f, 0x19, 0x3e,
  0x98, 0x09, 0xf1, 0xbd, 0xfe, 0xc1, 0xc9, 0x3d, 0x91, 0x2c, 0xd8, 0xbe,
  0xaf, 0xf3, 0x82, 0x3e, 0xdf, 0xe0, 0xad, 0xbd, 0x47, 0x3f, 0x6e, 0x3e,
  0x61, 0xdd, 0x9c, 0xbd, 0x63, 0x9a, 0x35, 0x3f, 0x48, 0x57, 0x63, 0x3b,
  0xdc, 0x29, 0xd5, 0xbe, 0xd6, 0x81, 0x10, 0x3e, 0x02, 0x6b, 0x5d, 0x3c,
  0xc0, 0x18, 0xb1, 0x3e, 0x73, 0xd7, 0xb4, 0x3d, 0x03, 0x4c, 0xdd, 0xbe,
  0xa6, 0xab, 0x81, 0xbd, 0x6e, 0x0a, 0x3b, 0x3e, 0x14, 0x69, 0x66, 0xbd,
  0xb3, 0x0c, 0x1d, 0xbf, 0x7b, 0xe1, 0xc7, 0x3e, 0xc8, 0xf5, 0xc7, 0x3c,
  0x5d, 0x7a, 0xe6, 0x3d, 0xbc, 0x9b, 0xcd, 0xbd, 0xfd, 0xd3, 0x2e, 0x3f,
  0xec, 0x4a, 0x94, 0x3d, 0x2c, 0xbc, 0x37, 0xbe, 0x94, 0xc4, 0xf8, 0xbc,
  0x1d, 0x31, 0x07, 0xbe, 0x2d, 0xb0, 0x4b, 0x3f, 0x04, 0x5e, 0x67, 0x3d,
  0x54, 0x5b, 0x47, 0xbe, 0xf4, 0x66, 0xa1, 0xbd, 0x2e, 0x78, 0x8b, 0x3e,
  0xfc, 0xa0, 0x87, 0xbd, 0xb8, 0x38, 0xba, 0xbe, 0xe8, 0x9d, 0x99, 0x3e,
  0x10, 0xb3, 0x70, 0xbe, 0xcf, 0x3e, 0xd9, 0x3c, 0x9f, 0x73, 0x14, 0xbe,
  0x5b, 0xdd, 0x45, 0x3f, 0x2e, 0xb2, 0xb4, 0x3c, 0x0b, 0x34, 0x76, 0xbe,
  0xc6, 0x03, 0x5d, 0xbd, 0xd7, 0x96, 0xb7, 0xbc, 0xc2, 0x6d, 0xc1, 0x3e,
  0x90, 0x6e, 0xeb, 0xbb, 0x8b, 0x78, 0x6c, 0xbe, 0x70, 0xb9, 0x2f, 0x3d,
  0xdb, 0x1b, 0x14, 0x3e, 0x82, 0xaf, 0xd3, 0x3b, 0x0c, 0x22, 0x4f, 0xbe,
  0x9b, 0xae, 0x3a, 0x3e, 0xea, 0xb8, 0x00, 0xbd, 0x4c, 0xad, 0x22, 0xbe,
  0x7c, 0x96, 0x2e, 0xbe, 0x44, 0x81, 0x34, 0x3f, 0x2d, 0x62, 0x28, 0x3d,
  0x46, 0x4a, 0x61, 0xbe, 0xd5, 0xe3, 0x7c, 0xbc, 0x7b, 0x05, 0x1a, 0xbe,
  0x6f, 0xf7, 0x6c, 0x3f, 0x72, 0xea, 0xaf, 0x3d, 0x0a, 0x6f, 0x75, 0xbb,
  0x5b, 0x5b, 0x0f, 0xbd, 0x69, 0xbe, 0x8f, 0x3e, 0xb5, 0xd0, 0x02, 0x3d,
  0xb0, 0x96, 0xd7, 0xbe, 0x63, 0x78, 0x8c, 0x3e, 0xa9, 0x9f, 0x34, 0xbe,
  0x60, 0x45, 0x56, 0xbd, 0xdd, 0xf0, 0x0e, 0xbf, 0x51, 0x12, 0x1d, 0x3f,
  0x32, 0x9b, 0x1d, 0xbd, 0x75, 0x38, 0x14, 0xbf, 0xb9, 0x2b, 0x46, 0x3d,
  0xc4, 0x5b, 0xde, 0x3c, 0x79, 0xaf, 0x9e, 0x3e, 0x08, 0x48, 0xea, 0xbd,
  0x25, 0x06, 0x59, 0xbe, 0x40, 0xf5, 0x19, 0xbd, 0x10, 0xe8, 0x29, 0x3c,
  0xfc, 0xda, 0x6b, 0xbd, 0xb5, 0xf5, 0xb1, 0xbe, 0x1d, 0x69, 0x12, 0x3e,
  0x52, 0x3d, 0x92, 0xbd, 0xf4, 0xfe, 0xde, 0x3d, 0x7e, 0xcc, 0x30, 0xbe,
  0xe7, 0x1a, 0xc5, 0x3e, 0x4a, 0xf0, 0x96, 0xbd, 0x6a, 0x25, 0x4a, 0xbe,
  0x30, 0x1b, 0x52, 0xbe, 0x81, 0xf2, 0x6f, 0xbd, 0x98, 0x9e, 0x97, 0x3e,
  0x15, 0xe5, 0xb1, 0x3d, 0xe5, 0x9d, 0x8c, 0xbe, 0x7a, 0x04, 0xba, 0x3c,
  0x1f, 0x38, 0x1e, 0x3d, 0x0f, 0xac, 0x64, 0xbd, 0xa2, 0x31, 0xbe, 0xbe,
  0x9f, 0x36, 0x1e, 0xbe, 0xdd, 0xd7, 0x26, 0x3e, 0x2a, 0x8f, 0x12, 0xbe,
  0xeb, 0xdb, 0x34, 0x3d, 0xa0, 0xb3, 0x4b, 0xbe, 0x6b, 0x97, 0xb8, 0xbd,
  0xf3, 0x71, 0xc7, 0xbd, 0x1d, 0xfb, 0xfa, 0x3c, 0x67, 0xb8, 0xee, 0x3d,
  0xcd, 0x83, 0x97, 0x3e, 0x1c, 0xcf, 0x0d, 0x3b, 0xb3, 0x3e, 0x98, 0x3e,
  0x12, 0xe6, 0x91, 0x3d, 0x43, 0xb5, 0x19, 0x3e, 0x4b, 0x8b, 0x91, 0xbe,
  0x60, 0xc3, 0x36, 0x3e, 0x5f, 0x41, 0x6c, 0x3d, 0xbb, 0xc7, 0x68, 0x3d,
  0x5f, 0x13, 0x1e, 0x3c, 0xa0, 0x51, 0x97, 0xbe, 0x2a, 0x43, 0xc2, 0x3d,
  0x10, 0x62, 0xfd, 0x3d, 0x77, 0x73, 0x1f, 0x3e, 0xaf, 0x2e, 0x39, 0xbe,
  0x8a, 0xef, 0xe2, 0x3c, 0x70, 0x09, 0xfe, 0x3e, 0x41, 0xd6, 0x92, 0x3d,
  0x64, 0x1e, 0x11, 0x3e, 0x5e, 0x9a, 0xba, 0x3c, 0x80, 0xd5, 0x90, 0xbc,
  0x66, 0x6b, 0x52, 0xbe, 0x68, 0x58, 0x3e, 0x3e, 0xc8, 0x98, 0x47, 0x3e,
  0xd8, 0xfb, 0x89, 0xbe, 0x6d, 0xef, 0xf1, 0x3d, 0x29, 0xd5, 0x04, 0xbf,
  0xf1, 0xdc, 0x14, 0xbf, 0xcf, 0x97, 0x6f, 0xbc, 0x3f, 0x80, 0x9a, 0xbe,
  0x54, 0xa6, 0xf2, 0xbd, 0x34, 0xd9, 0x6e, 0xbd, 0x2f, 0xc2, 0x40, 0xbf,
  0x61, 0x56, 0x31, 0xbd, 0xb6, 0x69, 0xce, 0xbd, 0x60, 0x40, 0x9b, 0xbc,
  0x17, 0xfd, 0x7d, 0xbe, 0x23, 0xf5, 0x7a, 0x3c, 0x32, 0x9e, 0x44, 0xbe,
  0x34, 0xca, 0x51, 0xbe, 0xa7, 0x9f, 0xbd, 0xbe, 0xaf, 0x2e, 0x53, 0xbe,
  0x21, 0x24, 0xf0, 0xbe, 0xe0, 0x5a, 0x8c, 0xbf, 0xd3, 0xb4, 0x7d, 0xbd,
  0xe0, 0xa6, 0xd9, 0xbe, 0x9c, 0x5b, 0xaf, 0xbc, 0x6c, 0xdb, 0xcf, 0xbd,
  0x67, 0x9b, 0x83, 0xbf, 0xdf, 0x79, 0x38, 0x3d, 0x66, 0xad, 0xca, 0xbe,
  0xad, 0x63, 0x46, 0xbd, 0xd0, 0xc8, 0x0b, 0xbf, 0x98, 0x87, 0x03, 0x3d,
  0xfb, 0xb9, 0x16, 0xbf, 0x79, 0x9d, 0x5f, 0xbe, 0x6f, 0x86, 0xc6, 0xbe,
  0x8e, 0x55, 0xc0, 0x3d, 0x8d, 0x23, 0x4a, 0xbd, 0x2d, 0xc1, 0xa2, 0xbf,
  0x0f, 0x4e, 0x31, 0xbe, 0x29, 0x7e, 0x06, 0xbe, 0x1f, 0x74, 0x79, 0xbd,
  0x4b, 0xdf, 0x9f, 0xbe, 0x26, 0x41, 0x8e, 0xbf, 0x69, 0xc8, 0x9b, 0xbc,
  0x20, 0xb3, 0x2c, 0xbe, 0x90, 0x30, 0x24, 0xbd, 0x93, 0x6e, 0xe0, 0xbe,
  0x42, 0xb2, 0xc5, 0xbc, 0x0a, 0xf8, 0xb7, 0xbe, 0x6f, 0x27, 0xa9, 0xbd,
  0xcc, 0x1b, 0x71, 0xbe, 0xc3, 0x3e, 0xee, 0x3d, 0x17, 0x8f, 0xd1, 0xbc,
  0xc1, 0xee, 0x51, 0xbf, 0x7a, 0x9e, 0xa5, 0xbe, 0xfb, 0xec, 0xdd, 0x3c,
  0xe2, 0xe2, 0x08, 0xbe, 0xea, 0x72, 0x3e, 0xbd, 0x73, 0xbf, 0x91, 0xbf,
  0x5e, 0xd6, 0x79, 0xbd, 0xfc, 0x41, 0xad, 0xbe, 0x1e, 0x1b, 0xf0, 0xbc,
  0x5d, 0x9c, 0xb1, 0xbe, 0xd4, 0x93, 0x9c, 0x3b, 0xb4, 0xf6, 0x4c, 0x3b,
  0xf7, 0xc7, 0x32, 0x3e, 0xcd, 0x24, 0x2e, 0x3d, 0x89, 0x3f, 0xed, 0x3a,
  0xc0, 0x01, 0xa8, 0xbe, 0xbd, 0x11, 0x58, 0xbf, 0x11, 0x4b, 0x55, 0xbe,
  0xcf, 0x78, 0xc4, 0xbe, 0x00, 0x00, 0x83, 0xbd, 0xd4, 0x9c, 0x7a, 0xbf,
  0x6a, 0x25, 0x2f, 0xbf, 0xb6, 0x77, 0x56, 0xbd, 0x1f, 0x44, 0xa7, 0xbd,
  0xeb, 0x71, 0x8e, 0xbd, 0x6e, 0x46, 0x80, 0xbe, 0xdd, 0x91, 0xf4, 0xbd,
  0x78, 0xfd, 0xb1, 0xbd, 0x82, 0x5d, 0x22, 0xbd, 0x63, 0xb8, 0x16, 0xbe,
  0x04, 0xd1, 0x1d, 0x3d, 0x42, 0xee, 0xbd, 0xbc, 0xfb, 0x2c, 0x43, 0xbd,
  0xf1, 0x6d, 0xd0, 0xbd, 0xbe, 0xed, 0x6d, 0x3e, 0x67, 0x18, 0x52, 0xbe,
  0x0d, 0x3c, 0xe3, 0xbe, 0x5e, 0x7a, 0x79, 0xbe, 0xb4, 0x12, 0xed, 0xbd,
  0xd3, 0x32, 0x50, 0xbe, 0x7f, 0x07, 0x29, 0xbe, 0x07, 0x71, 0xd4, 0xbe,
  0x6e, 0xf1, 0x41, 0xbe, 0x7d, 0x86, 0x89, 0xbd, 0x01, 0x59, 0x67, 0xbe,
  0x18, 0x2b, 0x97, 0x3c, 0x45, 0xbf, 0x65, 0x3e, 0x1e, 0xab, 0x20, 0x3e,
  0x3e, 0xda, 0x8e, 0xbe, 0x2c, 0x36, 0x8d, 0x3d, 0x4e, 0x4e, 0xe5, 0x3d,
  0xc9, 0xc2, 0x1f, 0xbe, 0x49, 0x32, 0x1b, 0x3e, 0xfc, 0xd9, 0xef, 0x3d,
  0x18, 0x2b, 0xff, 0x3b, 0x59, 0x8a, 0x52, 0xbd, 0xa5, 0x6a, 0xae, 0xbe,
  0x91, 0x5f, 0xae, 0xbe, 0xbc, 0xc7, 0xdf, 0xbc, 0xfe, 0x27, 0x87, 0x3d,
  0x90, 0x0b, 0xfd, 0xbd, 0x8e, 0x50, 0x52, 0x3e, 0x0e, 0x73, 0xa4, 0x3d,
  0x0b, 0x4f, 0x3f, 0x3d, 0xa5, 0x1f, 0xda, 0xbd, 0x22, 0x1d, 0x37, 0x3d,
  0xe9, 0xf1, 0x27, 0x3d, 0x91, 0x09, 0xcd, 0xbc, 0x31, 0xdf, 0x3a, 0xbe,
  0x7e, 0x91, 0xf0, 0x3e, 0x64, 0xcd, 0x82, 0x3c, 0x31, 0x57, 0xb0, 0x3e,
  0x18, 0x7e, 0xa2, 0xbe, 0x00, 0x11, 0x75, 0xbe, 0xac, 0x0a, 0x47, 0x3c,
  0x54, 0x6c, 0xb8, 0x3e, 0x9c, 0xb3, 0x00, 0xbe, 0xa4, 0xf3, 0xbc, 0x3e,
  0xda, 0xc7, 0xec, 0xbd, 0x69, 0x74, 0x94, 0x3d, 0xd5, 0x67, 0xed, 0xbe,
  0x37, 0xc7, 0xde, 0x3c, 0x7a, 0x40, 0x44, 0x3e, 0xa4, 0x84, 0x55, 0x3c,
  0xfa, 0xbd, 0x60, 0xbe, 0xd6, 0x88, 0x1c, 0x3e, 0xb9, 0x4c, 0xf4, 0x3c,
  0x1a, 0x97, 0xb4, 0x3e, 0xa4, 0xa2, 0x4e, 0xbe, 0x82, 0x68, 0x59, 0xbe,
  0x47, 0x70, 0x17, 0xbd, 0xf4, 0x66, 0xec, 0x3c, 0x9d, 0x67, 0x51, 0xbd,
  0xae, 0x58, 0x0d, 0xbc, 0x37, 0x39, 0x1e, 0x3d, 0x9f, 0x03, 0x5b, 0x3e,
  0x60, 0xc7, 0x96, 0xbe, 0x38, 0x85, 0x01, 0xbe, 0x53, 0xb2, 0x10, 0x3e,
  0x30, 0xbf, 0x02, 0xb9, 0x72, 0x45, 0xb4, 0xbe, 0x00, 0x87, 0xe4, 0xba,
  0xb6, 0x65, 0x36, 0xbd, 0xac, 0x15, 0xb0, 0x3e, 0x4b, 0xe2, 0xdd, 0xbe,
  0x28, 0xc0, 0xd4, 0xbe, 0xe1, 0x5c, 0xc5, 0xbd, 0x25, 0xb6, 0x09, 0x3d,
  0xb7, 0x97, 0x29, 0x3d, 0x77, 0xbe, 0x00, 0x3d, 0x58, 0xd0, 0x67, 0x3d,
  0x4c, 0x4a, 0xb6, 0x3d, 0xa5, 0x7c, 0xd1, 0xbe, 0xff, 0x0c, 0xe6, 0x3c,
  0x3f, 0x72, 0x02, 0x3e, 0x86, 0x14, 0x4f, 0x3d, 0x69, 0x4e, 0x5d, 0xbe,
  0x21, 0x8f, 0xd3, 0xbd, 0x7a, 0x02, 0x03, 0x3e, 0xe4, 0x42, 0xad, 0xbd,
  0x8c, 0x49, 0xa2, 0xbe, 0x52, 0x93, 0x9a, 0xbe, 0xe3, 0x16, 0x9a, 0x3d,
  0x82, 0xc2, 0xc0, 0x3d, 0x2f, 0xf1, 0x87, 0xbc, 0x8b, 0x2b, 0x4c, 0x3d,
  0x34, 0x83, 0x51, 0x3d, 0x15, 0xbf, 0x99, 0x3d, 0xe5, 0x24, 0x1f, 0xbe,
  0x9a, 0x90, 0x0f, 0xbe, 0x77, 0xb0, 0xa2, 0x3d, 0x58, 0xd4, 0x8a, 0x3e,
  0xf6, 0xda, 0x8a, 0xbd, 0x4b, 0x2b, 0x98, 0xbe, 0x02, 0x5c, 0xe5, 0xbd,
  0x8a, 0xfc, 0x4a, 0x3c, 0xeb, 0xc7, 0x68, 0xbe, 0x08, 0x0a, 0x1d, 0xbd,
  0x7a, 0xdf, 0x6e, 0x3c, 0xc6, 0x9c, 0xe8, 0x3d, 0x63, 0x2a, 0x88, 0x3c,
  0x34, 0xe8, 0x0d, 0xbe, 0x1c, 0xb3, 0x9f, 0xbb, 0xaf, 0x07, 0x1c, 0xbe,
  0xf3, 0xcd, 0x84, 0x3d, 0x48, 0xc4, 0xa5, 0x3c, 0x1f, 0x65, 0x47, 0xbd,
  0x30, 0x25, 0x74, 0x3e, 0x90, 0x1d, 0x16, 0xbd, 0x38, 0x57, 0x3e, 0x3e,
  0xa7, 0x62, 0xa7, 0x3c, 0xdb, 0x2f, 0xf9, 0xbd, 0xaa, 0x8c, 0xd3, 0xbb,
  0x66, 0x4c, 0x75, 0xbc, 0x75, 0xca, 0x2d, 0xbe, 0x5d, 0x65, 0x95, 0xbd,
  0xec, 0xa6, 0x02, 0xbd, 0x57, 0x8e, 0x4b, 0x3e, 0x1c, 0x40, 0x5d, 0x3e,
  0x4b, 0xc4, 0x41, 0x3d, 0x27, 0x4d, 0xf3, 0x3e, 0x0b, 0x78, 0x4b, 0xbe,
  0x06, 0xf9, 0xbe, 0xbd, 0xbd, 0x2b, 0x10, 0x3e, 0x0d, 0x65, 0xa1, 0xbd,
  0x1e, 0xf5, 0xbd, 0x3d, 0x32, 0x92, 0xc3, 0xbe, 0x82, 0x34, 0xa3, 0xbd,
  0x48, 0x85, 0xef, 0xbb, 0x76, 0xed, 0x3a, 0x3e, 0xde, 0xc1, 0xc1, 0xbe,
  0xfe, 0x2a, 0x88, 0xbc, 0x76, 0x96, 0x9b, 0x3d, 0xe7, 0x75, 0x34, 0x3e,
  0x06, 0x45, 0x9e, 0x3e, 0xe3, 0xc1, 0x16, 0xbe, 0x00, 0xf5, 0xf2, 0x3e,
  0xcd, 0xb6, 0x7f, 0xbc, 0x1c, 0x46, 0xab, 0xbd, 0x9a, 0x6c, 0x29, 0xbd,
  0xb9, 0x71, 0x78, 0xbd, 0x71, 0x16, 0x75, 0x3e, 0x02, 0x61, 0xe0, 0xbd,
  0x7a, 0xdb, 0xfb, 0x3c, 0x1e, 0xa7, 0x5e, 0x3d, 0xf5, 0xf1, 0x25, 0x3e,
  0x28, 0xd5, 0x9e, 0xbe, 0x9a, 0x90, 0x0a, 0xbd, 0x23, 0x3d, 0x9d, 0xbd,
  0xa0, 0x29, 0xb6, 0xbd, 0x74, 0xb0, 0x91, 0x3e, 0xfa, 0x8b, 0x34, 0xbc,
  0xc9, 0x38, 0xd2, 0x3e, 0xbb, 0x1c, 0x12, 0x3d, 0x61, 0xf2, 0x28, 0xbd,
  0xf4, 0x31, 0x13, 0xbc, 0xf1, 0x36, 0xb3, 0xbd, 0x61, 0xe6, 0x4d, 0x3e,
  0x52, 0x3a, 0xc3, 0xbe, 0xc9, 0xad, 0xbd, 0xbd, 0xf5, 0x44, 0x4a, 0x3c,
  0x0f, 0x97, 0x34, 0x3e, 0x54, 0x73, 0x79, 0xbe, 0x1a, 0x14, 0xe5, 0x3c,
  0x1e, 0xdc, 0x14, 0xbe, 0x77, 0x86, 0xe7, 0x3c, 0x26, 0x65, 0x8c, 0xbb,
  0x20, 0x1a, 0x77, 0xbd, 0x11, 0xc2, 0xb8, 0x3e, 0x28, 0x9f, 0x88, 0xbd,
  0xd8, 0x9f, 0x25, 0xbe, 0x2b, 0x6f, 0x0c, 0x3d, 0xc6, 0x28, 0x8e, 0xbe,
  0xd2, 0x1f, 0x2d, 0x3e, 0x3d, 0xda, 0x1b, 0xbd, 0x63, 0x9d, 0xf7, 0xbc,
  0xff, 0x8f, 0x5f, 0x3b, 0x19, 0x55, 0x29, 0x3d, 0x41, 0x87, 0x2b, 0x3c,
  0x60, 0x61, 0xe2, 0xbc, 0xcc, 0x4d, 0x01, 0xbd, 0x3e, 0x53, 0x6e, 0xbd,
  0xd8, 0x53, 0x58, 0xbe, 0x31, 0xa4, 0x49, 0xbe, 0x35, 0x9a, 0xd5, 0x3e,
  0x17, 0x60, 0x17, 0xbe, 0x8a, 0xdf, 0x4b, 0xbe, 0x10, 0xa9, 0xf7, 0xbb,
  0xf0, 0x4e, 0x2e, 0xbe, 0xf2, 0x94, 0x75, 0x3d, 0xf0, 0xac, 0xca, 0xbe,
  0xbe, 0x90, 0x7f, 0x3d, 0xd8, 0x71, 0x2d, 0x3d, 0xbd, 0x42, 0xe7, 0x3d,
  0x01, 0x83, 0xa1, 0xbe, 0x66, 0x66, 0x8b, 0xbc, 0x4c, 0xbe, 0x9c, 0xbd,
  0x79, 0x6d, 0xc1, 0xbd, 0x61, 0x14, 0x85, 0x3d, 0x02, 0x34, 0x89, 0x3c,
  0xae, 0x3c, 0x82, 0x3e, 0x75, 0xaa, 0x55, 0xbd, 0x58, 0x61, 0x71, 0xbd,
  0x14, 0x33, 0x81, 0xbd, 0xc0, 0x0c, 0xad, 0xbb, 0x91, 0x0c, 0x1f, 0xbe,
  0x8e, 0xd3, 0x29, 0x3c, 0xd0, 0x76, 0xa3, 0x3d, 0x55, 0x31, 0x5d, 0x3d,
  0xd5, 0xf3, 0x1f, 0x3d, 0x56, 0xdc, 0xe2, 0xbd, 0x68, 0xca, 0xb3, 0xbd,
  0x2e, 0xe8, 0x71, 0xbe, 0xb8, 0xa0, 0x8f, 0xbe, 0x67, 0x0a, 0x57, 0xbe,
  0x3f, 0xdc, 0xb3, 0xbe, 0xb5, 0x3c, 0x0b, 0xbe, 0x4f, 0xa0, 0x59, 0xbe,
  0x4e, 0x65, 0xf2, 0xbe, 0xfe, 0x00, 0xab, 0x3b, 0x05, 0xd8, 0x85, 0xbd,
  0x15, 0x45, 0x17, 0xbe, 0xe7, 0x13, 0x95, 0xbe, 0x56, 0x82, 0x86, 0xbe,
  0x59, 0x5b, 0xbd, 0xbd, 0x3f, 0xcc, 0xe5, 0xbd, 0xc1, 0x30, 0xd1, 0xbe,
  0x7d, 0x76, 0x43, 0xbe, 0x8f, 0x3a, 0xab, 0xbd, 0xa5, 0xd7, 0xd2, 0xbd,
  0xf9, 0x1c, 0xdd, 0x3d, 0x59, 0xdf, 0x3f, 0xbe, 0x4e, 0x9d, 0x9c, 0xbe,
  0x6c, 0xe5, 0x58, 0xbe, 0x33, 0x64, 0xd1, 0xbe, 0x48, 0xce, 0x82, 0x3d,
  0x1a, 0xb7, 0x7b, 0xbe, 0x32, 0x72, 0xcf, 0xbe, 0x4f, 0x18, 0xdf, 0xbe,
  0x12, 0x36, 0x69, 0x3d, 0x1c, 0xc6, 0x5e, 0xbc, 0xb6, 0x10, 0x8d, 0xbd,
  0x5d, 0x3d, 0x8e, 0xbe, 0xc0, 0x6c, 0x95, 0xbe, 0x52, 0x62, 0x5d, 0xbe,
  0xeb, 0x5d, 0x1b, 0x3d, 0xa1, 0x3a, 0x86, 0xbe, 0x19, 0xfd, 0xd9, 0xbc,
  0xc5, 0xf5, 0x04, 0xbe, 0x65, 0xa1, 0x05, 0x3c, 0x46, 0xdf, 0xaf, 0xbe,
  0x26, 0x31, 0x54, 0x3c, 0x00, 0xcf, 0x48, 0xbc, 0x12, 0xa6, 0xea, 0xbe,
  0x08, 0x23, 0x18, 0xbf, 0x84, 0x81, 0x9f, 0x3d, 0xd9, 0x54, 0xc0, 0xbc,
  0x38, 0x0f, 0xcd, 0xbb, 0xd5, 0x1f, 0xbc, 0xbe, 0x60, 0x3d, 0x9a, 0xbd,
  0x16, 0x5d, 0xe9, 0xbd, 0xe5, 0xe7, 0x4c, 0xbe, 0xe8, 0x5c, 0xb6, 0xbd,
  0x9a, 0xd3, 0x28, 0xbe, 0xa9, 0x20, 0xd7, 0xbd, 0xce, 0x75, 0x84, 0x3d,
  0x73, 0xab, 0x48, 0xbe, 0x0b, 0xd3, 0xb1, 0xbd, 0x08, 0x36, 0xc8, 0x3d,
  0x11, 0xfb, 0xa0, 0xbd, 0xe5, 0x54, 0xcf, 0xbe, 0x2a, 0xf3, 0x97, 0xbd,
  0xee, 0xb9, 0x07, 0xbe, 0xb1, 0x28, 0x4b, 0xbe, 0xf0, 0xd7, 0x91, 0xbe,
  0x16, 0x6b, 0x3f, 0x3d, 0xfb, 0x05, 0xf3, 0xbd, 0xaf, 0xb4, 0x0d, 0x3e,
  0xe6, 0x66, 0x73, 0x3d, 0x67, 0x55, 0x70, 0xbc, 0xa0, 0x3b, 0x74, 0xbb,
  0x7f, 0xee, 0x92, 0xbe, 0xfb, 0xdd, 0xb3, 0xbd, 0x01, 0xf1, 0xbb, 0x3d,
  0xff, 0x49, 0x3a, 0x3e, 0xb2, 0x58, 0x61, 0x3d, 0xc6, 0x9b, 0x94, 0xbe,
  0xa9, 0xa2, 0x44, 0x3e, 0x63, 0xa0, 0x4c, 0x3d, 0x5f, 0x70, 0x8c, 0x3e,
  0x72, 0xc7, 0x95, 0xbe, 0xd5, 0xce, 0xf6, 0xbd, 0xcf, 0x82, 0x96, 0xbc,
  0xa9, 0x13, 0x73, 0x3e, 0x23, 0xe4, 0xe4, 0xbd, 0x2b, 0xa3, 0x86, 0xbd,
  0x09, 0xf4, 0x15, 0x3e, 0x04, 0x45, 0xc6, 0xbb, 0x78, 0x51, 0x75, 0xbd,
  0x14, 0xef, 0x45, 0xbd, 0xd5, 0x7d, 0xa1, 0x3e, 0x5b, 0x3e, 0x7f, 0x3e,
  0x09, 0x9d, 0xc8, 0xbd, 0xcb, 0x82, 0xb4, 0x3e, 0x29, 0x7c, 0x03, 0x3e,
  0xd1, 0x10, 0x3f, 0x3e, 0x24, 0xc4, 0x46, 0xbe, 0xd3, 0xa7, 0x13, 0x3d,
  0x56, 0xfc, 0x16, 0x3d, 0xec, 0x1c, 0x3e, 0x3e, 0xd6, 0xea, 0x82, 0xbd,
  0x85, 0x7f, 0x07, 0xbe, 0xc8, 0x88, 0x47, 0xbe, 0x1c, 0x85, 0x82, 0x3d,
  0xd9, 0xbf, 0x36, 0x3c, 0x24, 0x18, 0xc2, 0xbd, 0x89, 0x98, 0x1d, 0xbd,
  0x82, 0xd3, 0x06, 0x3f, 0x6e, 0x6f, 0x44, 0x3e, 0x88, 0x41, 0x8a, 0xbe,
  0x87, 0x56, 0x96, 0xbe, 0x6d, 0x91, 0x32, 0xbe, 0x60, 0x2c, 0x6c, 0x3c,
  0x4b, 0x15, 0xd7, 0x3d, 0x50, 0x09, 0xd2, 0x3b, 0x89, 0x06, 0x8c, 0x3d,
  0xe9, 0x2b, 0x9f, 0x3e, 0x48, 0x4c, 0x2e, 0x3d, 0x3d, 0x61, 0x8b, 0xbe,
  0xe6, 0x64, 0x51, 0xbe, 0x2d, 0x64, 0x74, 0xbd, 0x17, 0xfe, 0x13, 0xbe,
  0x76, 0x19, 0x6e, 0x3c, 0x71, 0xbe, 0x10, 0xbe, 0x0f, 0x77, 0x82, 0xbe,
  0xfa, 0x05, 0xce, 0xbd, 0x94, 0x25, 0x86, 0xbd, 0x17, 0x49, 0x54, 0xbe,
  0x77, 0x5f, 0xcf, 0x3d, 0x4c, 0x48, 0x6d, 0x3d, 0x53, 0xf5, 0x05, 0xbd,
  0xb0, 0xb7, 0xda, 0xbd, 0x87, 0xa4, 0xf1, 0xbd, 0x2c, 0x86, 0xb0, 0xbd,
  0xa2, 0x47, 0x3f, 0x3d, 0xeb, 0x07, 0x3b, 0x3e, 0xa7, 0x5d, 0x83, 0x3a,
  0x30, 0x45, 0x2a, 0xbe, 0x6f, 0x04, 0x34, 0x3e, 0xe8, 0xe5, 0xf7, 0x3d,
  0x15, 0x95, 0xf3, 0xbd, 0x9e, 0xe9, 0xbc, 0x3d, 0x83, 0x26, 0xa3, 0xbe,
  0xd0, 0x43, 0x56, 0xbd, 0x82, 0x88, 0x50, 0x3e, 0x6f, 0x77, 0xc4, 0x3d,
  0x1f, 0xc7, 0x4c, 0x3e, 0xdc, 0x81, 0xe0, 0x3e, 0x8c, 0xd1, 0xc8, 0x3e,
  0x47, 0x47, 0x96, 0x3e, 0x35, 0xd3, 0x42, 0x3a, 0x88, 0x81, 0xe8, 0x3b,
  0xcf, 0x3d, 0x27, 0xbc, 0x33, 0x01, 0x2e, 0xbe, 0x8e, 0xa1, 0x7f, 0x3c,
  0xe3, 0xa4, 0x2e, 0x3f, 0xb3, 0x9e, 0xb9, 0xbe, 0x7d, 0x7a, 0xa5, 0x3c,
  0x0b, 0x3d, 0x74, 0x3c, 0x9b, 0x39, 0xb3, 0x3c, 0xf2, 0xe0, 0xb3, 0xbe,
  0x03, 0x87, 0x0d, 0xbe, 0x45, 0x5d, 0x8d, 0x3e, 0x73, 0xba, 0xb2, 0x3e,
  0x98, 0x01, 0xbd, 0x3e, 0x83, 0x53, 0xbd, 0x3e, 0x3b, 0x18, 0x96, 0xbd,
  0xbb, 0x50, 0xbe, 0x3d, 0x80, 0x3e, 0x13, 0x3e, 0xc5, 0xcf, 0x9e, 0x3d,
  0x0d, 0xd3, 0xdf, 0xbc, 0xd5, 0xff, 0xb9, 0x3e, 0x5b, 0x6b, 0xe7, 0xbc,
  0x15, 0xf2, 0x69, 0x3c, 0xfc, 0x43, 0x1f, 0x3e, 0xa2, 0x15, 0x94, 0xbe,
  0x64, 0xdc, 0xdb, 0xbc, 0x4b, 0xc9, 0x6a, 0x3d, 0xa3, 0xf6, 0xdb, 0x3e,
  0xc1, 0xcd, 0x7e, 0x3e, 0x11, 0xe5, 0x0e, 0x3e, 0x55, 0xcc, 0x86, 0xbe,
  0x09, 0x8b, 0x58, 0xbe, 0xad, 0x40, 0x0b, 0xbd, 0x86, 0x79, 0x94, 0xbd,
  0xb7, 0xa7, 0x89, 0xbd, 0x30, 0x6f, 0xb8, 0x3d, 0x6c, 0x57, 0x35, 0x3f,
  0xf4, 0x93, 0x09, 0x3e, 0xf7, 0x79, 0x80, 0x3c, 0xa2, 0xc7, 0x29, 0x3e,
  0x9c, 0x7c, 0x01, 0xbe, 0x11, 0x30, 0x4d, 0x3d, 0xcd, 0x9b, 0x08, 0x3e,
  0x07, 0xfc, 0x22, 0xbd, 0xf1, 0x0b, 0x4d, 0xbe, 0x2b, 0x08, 0xe3, 0x3d,
  0xb1, 0xe4, 0x87, 0x3c, 0x8c, 0xe9, 0x72, 0x3d, 0xf2, 0x07, 0x05, 0x3e,
  0xf4, 0x8e, 0xa9, 0xbb, 0x32, 0x90, 0x39, 0xbb, 0x41, 0x26, 0x59, 0x3d,
  0x05, 0x96, 0x0b, 0x3f, 0xd1, 0x39, 0xbb, 0x3b, 0x8c, 0x21, 0x8c, 0xbe,
  0xad, 0x75, 0x37, 0xbe, 0x9f, 0xa5, 0x3e, 0xbd, 0x5f, 0x41, 0x29, 0xbe,
  0x2a, 0x85, 0x89, 0xbe, 0x22, 0x92, 0x40, 0xbc, 0x4d, 0x59, 0x85, 0xba,
  0x04, 0x0a, 0xef, 0xbd, 0xdb, 0xdd, 0x09, 0x3d, 0x15, 0x53, 0x82, 0x3c,
  0xf1, 0xf3, 0x44, 0x3c, 0xb4, 0x1a, 0xce, 0xbc, 0x25, 0xf6, 0x33, 0x3d,
  0x85, 0x66, 0x0b, 0xbe, 0x9c, 0xe0, 0x2b, 0x3e, 0xd4, 0x94, 0xb9, 0xbd,
  0xb1, 0x8d, 0x6a, 0xbe, 0xea, 0x32, 0x0c, 0xbe, 0x21, 0xbe, 0xa9, 0xbe,
  0x0a, 0xc8, 0xe5, 0xbd, 0x7b, 0x88, 0x2f, 0xbe, 0xa9, 0xa7, 0x83, 0x3e,
  0x18, 0x23, 0x64, 0xbd, 0x0b, 0x3a, 0xa0, 0x3e, 0x98, 0xb0, 0xb4, 0x3a,
  0xc2, 0x7a, 0x3c, 0xbe, 0xec, 0xd0, 0xfd, 0xbb, 0x06, 0x83, 0x9f, 0xba,
  0x16, 0x63, 0x18, 0xbe, 0x95, 0x20, 0x01, 0x3d, 0x32, 0xdc, 0xdd, 0xbe,
  0xed, 0xdb, 0xcc, 0x3d, 0x42, 0x0c, 0x49, 0xbe, 0x39, 0x1a, 0xb9, 0xbd,
  0xc7, 0xe3, 0xdc, 0xbe, 0x9f, 0x04, 0xb0, 0x3e, 0x05, 0x49, 0xb9, 0x3d,
  0xca, 0xc5, 0x0d, 0x3e, 0x90, 0xe2, 0xeb, 0x3d, 0x6f, 0x93, 0x43, 0x3f,
  0x2a, 0x28, 0x03, 0x3e, 0x37, 0xd0, 0xbf, 0xbe, 0x79, 0x6b, 0x88, 0xbe,
  0x72, 0x0a, 0xd8, 0xbc, 0xf2, 0x3b, 0x96, 0xbe, 0xe5, 0x33, 0xde, 0x3e,
  0xf6, 0xf8, 0xac, 0xbe, 0x55, 0x81, 0x3c, 0xbd, 0xbc, 0xbf, 0xad, 0xbc,
  0xc4, 0x92, 0x30, 0xbd, 0x2d, 0x54, 0x21, 0x3e, 0x18, 0x54, 0x56, 0x3d,
  0xfa, 0x27, 0xac, 0x3c, 0x6b, 0x27, 0x52, 0x3d, 0xfa, 0x53, 0x0f, 0x3f,
  0x18, 0xe5, 0xc4, 0x3e, 0x27, 0xfa, 0xf9, 0x3d, 0xaf, 0x00, 0xf5, 0xbc,
  0x6d, 0x97, 0x4c, 0xbe, 0x66, 0x97, 0xc8, 0x3d, 0x60, 0xc8, 0x4a, 0xbe,
  0x0a, 0x11, 0xb9, 0x3c, 0x39, 0x16, 0x9c, 0x3e, 0x41, 0xb6, 0x8d, 0xbe,
  0x72, 0x80, 0xba, 0x3d, 0x3c, 0x2f, 0x36, 0xbe, 0x6b, 0x20, 0x13, 0xbc,
  0x71, 0x4d, 0x9b, 0xbe, 0x8c, 0x45, 0xce, 0x3c, 0xa2, 0x4e, 0x6c, 0x3c,
  0xe3, 0x39, 0xb7, 0x3e, 0xb8, 0xeb, 0xe4, 0x3e, 0x1a, 0xff, 0x16, 0x3e,
  0xe5, 0xeb, 0xaa, 0xbe, 0xac, 0x70, 0x06, 0xbe, 0x07, 0xa5, 0x27, 0x39,
  0xde, 0xc6, 0xac, 0x3c, 0xab, 0xf3, 0xd7, 0x3d, 0x23, 0x63, 0x04, 0xbe,
  0x66, 0xb0, 0x8e, 0xbe, 0x9d, 0x56, 0x84, 0xbd, 0x8e, 0x1b, 0xd2, 0x3d,
  0x57, 0x28, 0x39, 0xbd, 0x66, 0xd1, 0x25, 0xbd, 0xb6, 0x77, 0x07, 0x3e,
  0x46, 0x61, 0x69, 0x3e, 0xde, 0xd7, 0x9e, 0x3e, 0x28, 0x64, 0x9a, 0x3e,
  0xe1, 0xf0, 0xfe, 0x3d, 0xf5, 0x41, 0x0d, 0xbf, 0x4d, 0x6d, 0x33, 0xbd,
  0xe3, 0x2e, 0x6e, 0x3c, 0x26, 0x35, 0x02, 0x3e, 0x02, 0x05, 0x6f, 0x3c,
  0x14, 0x06, 0xa1, 0xbe, 0xc6, 0x9d, 0x1a, 0xbd, 0x9e, 0x50, 0x30, 0xbd,
  0x3d, 0x80, 0x10, 0x3e, 0x1c, 0x64, 0xd5, 0xbe, 0xed, 0x54, 0x9e, 0xbb,
  0xfc, 0xa4, 0x0d, 0x3c, 0x43, 0xc3, 0xc0, 0x3e, 0xfe, 0xb8, 0x20, 0x3e,
  0x9b, 0xa5, 0x09, 0x3f, 0x7f, 0x66, 0x70, 0x3d, 0x08, 0x21, 0x4a, 0xbe,
  0xcc, 0xd8, 0x00, 0xba, 0xb8, 0xef, 0x65, 0x3d, 0xde, 0xcd, 0xde, 0xbd,
  0x09, 0x6d, 0x97, 0x3d, 0x10, 0x4e, 0x8e, 0xbe, 0x24, 0x6b, 0x02, 0xbe,
  0xb3, 0x4b, 0xce, 0xbe, 0xe2, 0xbf, 0x3b, 0xbe, 0xed, 0x12, 0x4e, 0xbe,
  0x9f, 0x05, 0x21, 0xbd, 0x4c, 0xc3, 0xd8, 0xbb, 0x3a, 0x7c, 0x72, 0x3b,
  0xab, 0xa4, 0xe7, 0x3b, 0x16, 0xac, 0x75, 0x3e, 0x03, 0xba, 0xa9, 0x3d,
  0xc8, 0x54, 0xf5, 0x3d, 0x05, 0x8f, 0x89, 0xbd, 0xc2, 0x36, 0x15, 0xbd,
  0xdf, 0x04, 0x3e, 0xbe, 0x38, 0x39, 0xc9, 0x3d, 0x5c, 0x09, 0x5b, 0xbe,
  0x50, 0x91, 0xce, 0xbd, 0x51, 0xf3, 0xd9, 0xbc, 0x52, 0x65, 0x5e, 0x3c,
  0xe5, 0x38, 0xdf, 0xbd, 0x10, 0xbc, 0xd4, 0xbd, 0x89, 0x9e, 0x3a, 0x3d,
  0x31, 0x9d, 0x46, 0x3e, 0x70, 0x10, 0x72, 0xbd, 0x6c, 0xae, 0x9d, 0x3e,
  0x86, 0x46, 0x0c, 0x3d, 0x6b, 0xf1, 0xa9, 0xbc, 0x20, 0x4c, 0xed, 0xbd,
  0xc8, 0x83, 0xc5, 0x3d, 0xf9, 0x93, 0x19, 0xbe, 0xfc, 0x35, 0x84, 0xbd,
  0x00, 0xaf, 0x9c, 0xbe, 0x0d, 0x95, 0x7c, 0xbd, 0x89, 0x9a, 0xb3, 0xbd,
  0x3a, 0x89, 0x89, 0x3c, 0x74, 0x02, 0x45, 0xbe, 0x47, 0x25, 0x9d, 0x3e,
  0xd5, 0xe6, 0x12, 0x3e, 0xd2, 0x17, 0xe2, 0x3d, 0x60, 0x9c, 0x4e, 0xbe,
  0xb7, 0x37, 0x4f, 0x39, 0xc3, 0xbb, 0x45, 0x3d, 0x86, 0x2f, 0xcf, 0xbe,
  0x0b, 0xb8, 0x4b, 0xbe, 0x27, 0xb9, 0x46, 0xbe, 0x9a, 0x4c, 0x71, 0xbe,
  0x40, 0xac, 0xab, 0x3e, 0x73, 0x3b, 0x7f, 0xbe, 0x57, 0xd1, 0x4c, 0xbe,
  0x15, 0xa9, 0x8f, 0x3c, 0xd4, 0x0b, 0x2f, 0x3e, 0xb9, 0x43, 0xb1, 0x3d,
  0x54, 0x9c, 0xa9, 0x3d, 0xe1, 0xf8, 0xd5, 0xbd, 0xb6, 0x59, 0xf0, 0xbd,
  0x6c, 0x6d, 0xd8, 0x3e, 0xd6, 0x10, 0xf6, 0x3e, 0x2f, 0x53, 0x79, 0x3e,
  0x15, 0x99, 0xc1, 0xbe, 0x1e, 0xbb, 0x8f, 0xbe, 0xac, 0xdc, 0x21, 0x3e,
  0xe7, 0xca, 0x03, 0xbc, 0x5a, 0xd2, 0x5c, 0x3e, 0xf7, 0x8f, 0xa7, 0x3c,
  0xd2, 0x75, 0xcd, 0xbe, 0xb3, 0x9d, 0x42, 0x3e, 0xb7, 0x0b, 0xa3, 0xbd,
  0x40, 0xaa, 0x09, 0x3e, 0x27, 0xcd, 0x85, 0xbe, 0x1c, 0xad, 0x07, 0xbe,
  0x97, 0x1c, 0xfb, 0x3d, 0x42, 0xe0, 0x03, 0x3f, 0x0c, 0xc1, 0xcb, 0x3e,
  0x8d, 0xa4, 0x52, 0x3e, 0xc5, 0x8a, 0x05, 0xbf, 0xcd, 0x14, 0x19, 0xbd,
  0xd6, 0xa7, 0x93, 0x3d, 0xa7, 0x51, 0x04, 0x3e, 0xaa, 0xc3, 0x8b, 0x3e,
  0x2a, 0x07, 0x24, 0xbe, 0x33, 0xd1, 0x89, 0xbe, 0x32, 0x82, 0xae, 0xbd,
  0x31, 0xae, 0x77, 0xbc, 0x13, 0xdd, 0x07, 0xbe, 0x97, 0xc5, 0x86, 0xbd,
  0xab, 0x1a, 0xcc, 0x3d, 0x2f, 0x55, 0xa2, 0x3e, 0xb9, 0xc6, 0xb8, 0x3e,
  0x8b, 0x3f, 0xeb, 0x3e, 0x54, 0x9a, 0x25, 0x3e, 0xb4, 0xb3, 0xf7, 0xbe,
  0x5f, 0x08, 0x9c, 0xbd, 0x64, 0xbb, 0xbd, 0x3c, 0x5a, 0x4b, 0xc4, 0x3d,
  0x8d, 0xe0, 0x11, 0x3e, 0x38, 0xc9, 0x5b, 0xbe, 0x6a, 0xe7, 0x8f, 0x3d,
  0xe3, 0xa7, 0x99, 0xbc, 0x6e, 0xd3, 0x2a, 0xbc, 0x42, 0xa2, 0x90, 0xbe,
  0x13, 0xd0, 0x0b, 0x3e, 0x2c, 0xdd, 0xdd, 0x3d, 0x99, 0x6d, 0x32, 0x3d,
  0x89, 0x9c, 0x59, 0x3d, 0xe4, 0xad, 0x20, 0x3f, 0x8a, 0x7c, 0x99, 0x3c,
  0x26, 0x75, 0xdf, 0xbe, 0xba, 0x36, 0x03, 0x3d, 0x2c, 0x28, 0x34, 0x3d,
  0xaf, 0x5e, 0x24, 0xbc, 0xb9, 0xcf, 0xa6, 0xbb, 0x5d, 0x47, 0xea, 0xbe,
  0x91, 0x37, 0x4a, 0xbe, 0xad, 0x30, 0x2f, 0xbe, 0xc1, 0x9a, 0xcb, 0xbd,
  0xc3, 0x1b, 0xa7, 0xbd, 0x78, 0xb8, 0x3b, 0x3d, 0x51, 0x1f, 0x9c, 0xbd,
  0x5c, 0x3d, 0x74, 0x3d, 0x9c, 0xba, 0x1a, 0x3d, 0x91, 0xd9, 0x4a, 0xbe,
  0x64, 0xf9, 0xba, 0x3d, 0xd7, 0xda, 0x9b, 0xbe, 0xdd, 0x89, 0x50, 0x3d,
  0x8b, 0xc6, 0x80, 0x3c, 0x05, 0x9c, 0xe2, 0xbc, 0x5d, 0x2d, 0x98, 0x3d,
  0xe1, 0xa6, 0x54, 0xbe, 0x5a, 0xae, 0x89, 0xbb, 0x2c, 0x2a, 0x3b, 0xbc,
  0xc7, 0x2f, 0x74, 0xba, 0xb6, 0x0f, 0x81, 0xbd, 0x2c, 0x0c, 0xd0, 0xbd,
  0xd1, 0xbd, 0x96, 0xbe, 0x4d, 0x89, 0x91, 0x3d, 0x12, 0x8c, 0x36, 0x3e,
  0x32, 0x64, 0x97, 0x3d, 0x18, 0x43, 0x74, 0x3d, 0x74, 0x93, 0xaf, 0xbd,
  0x5a, 0x44, 0x86, 0xbd, 0x1b, 0xf6, 0xc3, 0xbc, 0xca, 0xa2, 0xc5, 0x3d,
  0x8b, 0x05, 0x7e, 0x3d, 0x4e, 0x17, 0x3c, 0x3e, 0x61, 0x6e, 0xd5, 0xbd,
  0x3a, 0x12, 0x89, 0x3e, 0x14, 0x19, 0x4f, 0x3d, 0x80, 0xad, 0x42, 0x3d,
  0x34, 0xdf, 0xe7, 0x3d, 0x0d, 0xd2, 0x9e, 0x3e, 0x4f, 0xf5, 0x3a, 0x3d,
  0x8f, 0x23, 0x03, 0x3e, 0xde, 0xb9, 0x92, 0xbc, 0xa1, 0x26, 0x7a, 0x3c,
  0xd7, 0x40, 0x9f, 0xbe, 0xf4, 0xcc, 0x86, 0xbe, 0x8e, 0xa1, 0xa8, 0x3c,
  0xa0, 0x07, 0x98, 0xbc, 0x56, 0x11, 0x2a, 0x3e, 0x8c, 0xd5, 0xa3, 0x3e,
  0x2c, 0x69, 0x38, 0xbd, 0xa3, 0xcf, 0x31, 0x3d, 0x11, 0x9a, 0xad, 0xba,
  0x93, 0x18, 0xdd, 0xbd, 0xdd, 0x0c, 0x3d, 0xbd, 0xd3, 0xfb, 0x61, 0x3d,
  0xb3, 0xbb, 0x45, 0x3d, 0xfe, 0xb0, 0x4c, 0x3d, 0x91, 0x5a, 0xb3, 0x3e,
  0x86, 0xb5, 0xd4, 0xbc, 0x99, 0xf4, 0xd2, 0xbe, 0x99, 0x87, 0x0a, 0xbe,
  0x3c, 0xcd, 0xcf, 0x3b, 0xa8, 0x88, 0xaa, 0xbc, 0xf6, 0xad, 0x2d, 0x3e,
  0x55, 0x25, 0xd0, 0xbe, 0xc1, 0xad, 0xef, 0xbd, 0x3b, 0x43, 0x9a, 0xbb,
  0xc8, 0xbc, 0xdd, 0x3a, 0xcf, 0x5f, 0x34, 0xbe, 0x44, 0x48, 0x11, 0x3c,
  0x57, 0x76, 0x03, 0xbe, 0x23, 0x06, 0x34, 0x3d, 0x21, 0x05, 0xe5, 0x3d,
  0x6d, 0xe6, 0x8f, 0x39, 0xc3, 0x01, 0xe2, 0x3b, 0x6a, 0xdb, 0xbd, 0xbe,
  0x98, 0xe3, 0x34, 0x3c, 0x25, 0x88, 0xc6, 0xbd, 0x4a, 0x73, 0x48, 0xbd,
  0x3e, 0x50, 0x6c, 0x3e, 0x56, 0x4c, 0x8c, 0x3c, 0xc7, 0x74, 0x11, 0xbe,
  0x5b, 0x84, 0x44, 0xbe, 0xd1, 0x76, 0x5c, 0xbd, 0x84, 0x46, 0xab, 0xbe,
  0x87, 0x7c, 0x01, 0x3d, 0xc6, 0xce, 0x14, 0xbe, 0xbf, 0x6e, 0x84, 0x3d,
  0xe7, 0xaf, 0x93, 0x3d, 0x71, 0x75, 0x04, 0x3e, 0x1e, 0x27, 0x4e, 0x3c,
  0x00, 0xf7, 0x54, 0xbe, 0x91, 0xe6, 0x8f, 0xbd, 0x4d, 0x5c, 0x10, 0xbd,
  0xf0, 0x0c, 0x28, 0xbc, 0xcc, 0xe0, 0x70, 0x3e, 0x63, 0x7f, 0xd6, 0xbb,
  0x06, 0x66, 0x08, 0xbe, 0x02, 0x51, 0x9e, 0xbd, 0x82, 0x0b, 0xaf, 0xbb,
  0x52, 0x77, 0xb1, 0xbd, 0x9e, 0x49, 0xae, 0x3d, 0x73, 0x4e, 0x00, 0x3d,
  0x73, 0x11, 0xa8, 0x3d, 0x82, 0xa0, 0x07, 0x3e, 0xc8, 0xa1, 0x0e, 0x3d,
  0xfc, 0x6b, 0x24, 0x3d, 0x24, 0x6c, 0x5d, 0xbd, 0xe6, 0x67, 0xe8, 0xbd,
  0x4f, 0x2a, 0xba, 0xbc, 0x1c, 0xcb, 0x12, 0xbc, 0xa9, 0xd8, 0x3d, 0x3e,
  0x5d, 0xd8, 0xa2, 0x3e, 0xec, 0x2b, 0xa6, 0xbd, 0xdb, 0x16, 0xe6, 0x3d,
  0x42, 0x21, 0xd1, 0xbc, 0x5e, 0x6b, 0x00, 0x3e, 0x1f, 0x46, 0x9d, 0x3c,
  0x54, 0xad, 0xcd, 0x3d, 0x32, 0xcb, 0x9a, 0x3d, 0x30, 0x32, 0x84, 0x3d,
  0xd2, 0x6c, 0x74, 0x3d, 0x20, 0x8d, 0xe8, 0x3c, 0x2d, 0x00, 0xe8, 0x3c,
  0x87, 0xda, 0xb9, 0x3d, 0x2d, 0x4d, 0x2f, 0xba, 0x6f, 0xd7, 0xc6, 0xbb,
  0xe8, 0xff, 0x85, 0x3e, 0x99, 0xa7, 0x32, 0x3e, 0xaa, 0x40, 0xa8, 0xbd,
  0x07, 0xcc, 0x2f, 0x3c, 0xfd, 0xd5, 0x4b, 0x3d, 0xab, 0x50, 0x74, 0xbb,
  0x84, 0x19, 0xad, 0x3d, 0xd6, 0x46, 0xdf, 0x3d, 0x75, 0x7c, 0x2d, 0xbe,
  0x24, 0x31, 0xdd, 0xbe, 0xcb, 0x39, 0x34, 0xbe, 0xe1, 0x83, 0x09, 0x3e,
  0x51, 0x94, 0xd4, 0x3d, 0xd2, 0x63, 0x26, 0xbe, 0x49, 0xe3, 0x08, 0x3e,
  0xfc, 0x3f, 0x30, 0xbf, 0x27, 0xb5, 0x19, 0x3c, 0x2c, 0x8b, 0x50, 0xbe,
  0x89, 0xd7, 0xb2, 0xbe, 0xe9, 0x76, 0x65, 0xbe, 0x58, 0xd9, 0x59, 0xbe,
  0x9b, 0xf0, 0xac, 0xbe, 0xb0, 0x74, 0xda, 0xbe, 0x4b, 0x8d, 0x92, 0xbe,
  0x1f, 0x5e, 0x31, 0xbf, 0xc0, 0xc9, 0xbe, 0xbd, 0x8f, 0xb8, 0x02, 0xbe,
  0xfc, 0xe4, 0xf7, 0x3c, 0xcc, 0x60, 0x86, 0xbe, 0x78, 0x3f, 0x2c, 0x3e,
  0xed, 0x58, 0x49, 0x3e, 0x05, 0x3c, 0xf6, 0x3d, 0x3a, 0xd9, 0xc1, 0xbe,
  0x91, 0xfa, 0xd4, 0xbd, 0x0a, 0xf3, 0x3d, 0x3c, 0x28, 0x9f, 0xd7, 0x3d,
  0x8e, 0xec, 0xe0, 0xbe, 0xea, 0x7b, 0x38, 0xbf, 0x04, 0x42, 0xcf, 0x3c,
  0x8a, 0x91, 0x3d, 0x3d, 0x83, 0xfb, 0xad, 0xbe, 0x2b, 0x78, 0xec, 0xbe,
  0x2b, 0x3a, 0x61, 0xbd, 0xa7, 0xd3, 0x8d, 0x3d, 0xb5, 0xee, 0x7c, 0xbe,
  0x0a, 0xc6, 0xca, 0x3d, 0xa5, 0x73, 0x77, 0x3c, 0x70, 0x3c, 0xef, 0x3d,
  0xe7, 0xf9, 0xa6, 0xbd, 0x77, 0x71, 0x42, 0xbe, 0x9e, 0x49, 0xbc, 0x3d,
  0x87, 0x62, 0xc6, 0x3e, 0xf7, 0xca, 0x32, 0xbf, 0x1d, 0xe1, 0xa1, 0xbd,
  0xa5, 0xed, 0x8e, 0x3d, 0x68, 0x14, 0x77, 0x3e, 0x9e, 0xea, 0xcb, 0xbe,
  0xb0, 0xdc, 0xbf, 0x3d, 0x4d, 0x18, 0x7e, 0xbd, 0x00, 0xd9, 0x5b, 0x3c,
  0x4b, 0x42, 0xaa, 0xbc, 0x6c, 0x3f, 0x61, 0x3b, 0x3b, 0x77, 0x4c, 0x3e,
  0x29, 0xd7, 0x2e, 0x3d, 0xe8, 0x77, 0x8f, 0xbe, 0x7d, 0x11, 0x30, 0x3d,
  0x23, 0x86, 0x91, 0x3d, 0xae, 0x27, 0x69, 0x3e, 0xf8, 0xdd, 0x68, 0xbe,
  0x8b, 0x0f, 0xdd, 0xbd, 0x67, 0x09, 0xe7, 0xbc, 0xe6, 0xb6, 0x69, 0x3e,
  0x3d, 0xf6, 0x0a, 0xbf, 0x9a, 0x03, 0x9a, 0xbe, 0xca, 0x63, 0x28, 0xbe,
  0x8d, 0x77, 0xd5, 0x3c, 0x07, 0xd8, 0x5e, 0xbe, 0xbc, 0xf6, 0xd9, 0x3d,
  0xa7, 0xc8, 0x4f, 0x3e, 0x74, 0xeb, 0xbf, 0xbd, 0x54, 0xbc, 0x25, 0xbe,
  0xcc, 0xd4, 0x20, 0xbe, 0x06, 0x63, 0x9f, 0xbd, 0xa6, 0xbf, 0x90, 0x3e,
  0x8a, 0xc8, 0xff, 0xbe, 0x60, 0xac, 0xf2, 0x3b, 0x8f, 0xd4, 0x3a, 0xbe,
  0x9e, 0x1d, 0x49, 0xbd, 0x3d, 0xf2, 0x07, 0xbf, 0xf1, 0x98, 0xb6, 0xbe,
  0x99, 0x2e, 0xa1, 0xbe, 0xa7, 0x3b, 0x3a, 0xbd, 0x68, 0xa7, 0x4b, 0xbe,
  0x86, 0xfd, 0x45, 0x3e, 0x2a, 0xbf, 0x2a, 0x3e, 0x95, 0xf8, 0xaa, 0x3c,
  0x60, 0x5f, 0x99, 0xbe, 0x81, 0xb0, 0x2c, 0xbd, 0xd9, 0x52, 0x43, 0x3e,
  0xad, 0x47, 0x81, 0x3e, 0xe1, 0x6a, 0x62, 0xbe, 0x10, 0x5e, 0xa9, 0xbe,
  0xdb, 0x98, 0x3f, 0x3d, 0x25, 0x12, 0x5e, 0x3e, 0xd2, 0x91, 0x29, 0xbe,
  0xf2, 0x60, 0x84, 0xbe, 0xce, 0xa0, 0x1d, 0xbc, 0xa3, 0x82, 0x0e, 0xbc,
  0x92, 0xcb, 0x92, 0xbe, 0xec, 0x7d, 0x1b, 0xbe, 0xb5, 0xf6, 0xdd, 0x3c,
  0x8a, 0x4d, 0xa7, 0x3e, 0x95, 0xa6, 0x33, 0xbd, 0xad, 0xe9, 0x0f, 0x3d,
  0xc0, 0x61, 0x16, 0xbd, 0x0f, 0xc0, 0xbd, 0x3c, 0x13, 0x4e, 0x14, 0xbf,
  0x8e, 0x3f, 0xb5, 0x3c, 0x48, 0x08, 0xb8, 0x3d, 0x6c, 0xde, 0x10, 0x3e,
  0xed, 0xcb, 0xec, 0xba, 0xbf, 0x15, 0x9c, 0xbe, 0x5d, 0xe0, 0x68, 0xbd,
  0x22, 0xdf, 0x2f, 0xbe, 0x9c, 0xe2, 0xee, 0xbd, 0xf2, 0x1d, 0x3e, 0xbe,
  0x3b, 0x41, 0xd0, 0xbe, 0xe2, 0x1b, 0x56, 0xbe, 0x1b, 0xd8, 0x5a, 0xbe,
  0xb2, 0x8f, 0xce, 0x3d, 0x51, 0x01, 0x6e, 0xbe, 0xd9, 0xbc, 0x3f, 0xbd,
  0xc0, 0x37, 0xbe, 0xbe, 0x77, 0x82, 0x86, 0xbe, 0x7c, 0x03, 0x01, 0xbe,
  0x1c, 0xec, 0x8e, 0xbe, 0x07, 0x6d, 0x95, 0xbd, 0x51, 0x37, 0x15, 0xbe,
  0x78, 0xf4, 0x2e, 0xbb, 0x10, 0xff, 0x8f, 0xbe, 0x1d, 0xdc, 0xb5, 0xbd,
  0x4b, 0x62, 0xe1, 0x3e, 0x6b, 0x42, 0x7d, 0xbe, 0xeb, 0xaa, 0x3e, 0xbd,
  0x58, 0xca, 0x52, 0x3b, 0x01, 0x9c, 0x8a, 0x3e, 0xe6, 0x70, 0x00, 0xbe,
  0x30, 0x5f, 0x68, 0xbe, 0xe8, 0x04, 0x86, 0x3d, 0x20, 0xce, 0x85, 0xbe,
  0x5b, 0xea, 0x11, 0xbe, 0xbc, 0xd7, 0x9b, 0xbd, 0x54, 0x95, 0x77, 0x3e,
  0x0b, 0xa7, 0xb7, 0x3d, 0x4c, 0xf9, 0x4d, 0xbe, 0xc8, 0x7b, 0x29, 0xbe,
  0x95, 0xf9, 0xc5, 0x3d, 0xa4, 0x71, 0x5a, 0x3e, 0x00, 0x64, 0x00, 0xbe,
  0x67, 0x6c, 0x9b, 0xbe, 0x13, 0x9d, 0x63, 0xbe, 0x42, 0x2a, 0x11, 0x3f,
  0xf4, 0x96, 0x07, 0xbf, 0x74, 0x25, 0x08, 0xbe, 0x69, 0x93, 0xca, 0xbc,
  0xfc, 0x43, 0xd7, 0xbd, 0x89, 0x87, 0x01, 0xbe, 0xe4, 0x5e, 0x99, 0xbe,
  0xc9, 0xa0, 0x89, 0x3e, 0x6a, 0xcb, 0x8d, 0xbe, 0x66, 0x70, 0xb2, 0xbd,
  0xa1, 0x84, 0xa9, 0xbe, 0xe3, 0xc4, 0x73, 0xbc, 0x18, 0x76, 0x36, 0x3e,
  0x7c, 0xe0, 0x32, 0xbe, 0x44, 0xfc, 0x77, 0xbd, 0xe0, 0x1d, 0x06, 0xbe,
  0x5e, 0xe5, 0x06, 0x3f, 0x36, 0x60, 0x09, 0xbf, 0xfa, 0xb9, 0xf7, 0x3d,
  0xce, 0xc2, 0xd0, 0xbd, 0xf1, 0xdd, 0x6c, 0xbe, 0xf5, 0xc9, 0x7a, 0xbe,
  0x2c, 0xc4, 0x5c, 0xbe, 0xc6, 0xff, 0x13, 0x3e, 0xdb, 0xa5, 0x08, 0xbe,
  0x55, 0x4e, 0xf5, 0xbd, 0xa1, 0xa3, 0x9d, 0x3d, 0xbb, 0xc5, 0xef, 0x3d,
  0xd6, 0xf8, 0xa3, 0x3e, 0x26, 0xf5, 0xee, 0xbd, 0x6c, 0xdb, 0x0f, 0xbe,
  0x73, 0x42, 0x54, 0x3c, 0x79, 0x0e, 0xb2, 0x3e, 0x4e, 0x8e, 0x8a, 0xbe,
  0x69, 0x81, 0x41, 0x3d, 0xed, 0x7c, 0x80, 0xbe, 0x3b, 0xc8, 0xb4, 0xbe,
  0x95, 0xb4, 0xe9, 0xbc, 0xd9, 0xa7, 0x48, 0xbe, 0xe5, 0x6c, 0x47, 0x3e,
  0xc5, 0x90, 0x74, 0xbc, 0x87, 0x99, 0x28, 0xbe, 0x42, 0xf1, 0x98, 0xbe,
  0x24, 0x1b, 0x1e, 0x3e, 0xec, 0xe5, 0x32, 0x3e, 0x0a, 0xac, 0x12, 0xbe,
  0xd5, 0x99, 0x44, 0xbe, 0xf6, 0x8e, 0x15, 0xbe, 0xbf, 0x5a, 0x74, 0x3e,
  0x1a, 0x43, 0xbf, 0xbe, 0xd6, 0x28, 0x94, 0xbd, 0xee, 0xa6, 0x33, 0xbe,
  0x75, 0x36, 0xad, 0xbc, 0x73, 0xa6, 0xe1, 0xbd, 0xf9, 0xed, 0x24, 0xbe,
  0xa5, 0x97, 0x6c, 0x3c, 0x82, 0xf6, 0xd2, 0xbd, 0x3b, 0x92, 0xaa, 0xbe,
  0x31, 0x66, 0x4d, 0xbe, 0xcc, 0x81, 0xea, 0x3d, 0xd4, 0x43, 0xc7, 0x3d,
  0x42, 0xbf, 0xb5, 0xbe, 0x79, 0xec, 0xec, 0xbd, 0xdb, 0xfa, 0x7b, 0x3d,
  0xc3, 0x3b, 0xaf, 0x3d, 0x9f, 0x5d, 0x43, 0xbe, 0x4a, 0x6c, 0x30, 0xbd,
  0x92, 0x76, 0x8c, 0xbe, 0x75, 0x46, 0x62, 0xbe, 0xd1, 0x2a, 0xa4, 0xbe,
  0x7a, 0x03, 0x72, 0xbe, 0x5b, 0xac, 0x50, 0x3e, 0x8f, 0x4e, 0x26, 0xbe,
  0x70, 0x9c, 0x51, 0xbd, 0xb9, 0x58, 0x5e, 0xbe, 0x6b, 0x74, 0xa4, 0x3d,
  0xf8, 0xfa, 0x75, 0x3e, 0x31, 0xd2, 0x4d, 0xbe, 0xf4, 0xa4, 0x2a, 0x3d,
  0x26, 0x58, 0xc2, 0x3c, 0xcb, 0xbe, 0x12, 0x3e, 0xd4, 0x0a, 0x26, 0x3e,
  0xc3, 0x14, 0x9d, 0xbe, 0xed, 0xbd, 0xa2, 0x3d, 0xb9, 0x5c, 0x7c, 0xbe,
  0xf8, 0x32, 0xa8, 0x3d, 0x54, 0x7f, 0xa3, 0xbe, 0x9a, 0x08, 0x63, 0x3e,
  0x49, 0xcb, 0x6b, 0xbd, 0xd8, 0x36, 0x94, 0x3e, 0x29, 0x21, 0x85, 0x3d,
  0x6d, 0xa0, 0x26, 0x3f, 0xc3, 0xbd, 0xd8, 0x3d, 0x44, 0xb5, 0x3b, 0xbe,
  0xd4, 0x56, 0x25, 0x3d, 0xa9, 0x4b, 0x02, 0x3e, 0x83, 0x4e, 0x02, 0x3f,
  0x2a, 0xae, 0x9b, 0x3d, 0xc5, 0x3f, 0xcb, 0xbe, 0x62, 0x0f, 0xa2, 0x3c,
  0x9e, 0xa2, 0x72, 0x3e, 0x79, 0x50, 0xc1, 0x3c, 0xf4, 0xf0, 0x48, 0xbe,
  0x9c, 0x75, 0x9e, 0x3e, 0x86, 0xc0, 0xf7, 0x3d, 0x5f, 0xbe, 0x8b, 0x3e,
  0xd7, 0xcb, 0x84, 0xbd, 0x4c, 0x44, 0x1a, 0x3f, 0x6a, 0x1d, 0xf0, 0x3d,
  0xb5, 0x4a, 0x36, 0xbd, 0xae, 0x5d, 0x6b, 0xbd, 0x39, 0x1c, 0x1a, 0xbe,
  0x33, 0x9a, 0x36, 0x3f, 0x60, 0x5b, 0xa2, 0xbd, 0x5a, 0x27, 0xae, 0xbc,
  0x83, 0xca, 0x96, 0x3c, 0xa3, 0x71, 0x1e, 0x3e, 0x8a, 0x00, 0x4b, 0xbd,
  0x9d, 0x31, 0x94, 0xbd, 0xe3, 0x36, 0x33, 0x3e, 0x07, 0x6f, 0x3b, 0xbe,
  0xa9, 0x59, 0x5a, 0x3d, 0xa9, 0x35, 0xce, 0xbd, 0xbb, 0x4d, 0x4d, 0x3f,
  0x77, 0x70, 0xe3, 0x3d, 0xad, 0x3a, 0xab, 0xbd, 0xe2, 0x39, 0x19, 0xbd,
  0x19, 0x2a, 0x8f, 0x3c, 0xae, 0x36, 0x8a, 0x3e, 0x2b, 0x62, 0x01, 0xbe,
  0xe9, 0x07, 0xaa, 0xbd, 0xb1, 0xa3, 0xbc, 0xbc, 0x5b, 0x44, 0x81, 0x3e,
  0x72, 0x39, 0x24, 0x3d, 0x24, 0x05, 0xb8, 0xbd, 0x8e, 0x4a, 0x1e, 0x3d,
  0x2a, 0xe7, 0xd8, 0xbd, 0xa0, 0xb2, 0x8c, 0xbc, 0x97, 0x53, 0xe2, 0xbd,
  0x91, 0x85, 0x0a, 0x3f, 0xa8, 0x3c, 0x4b, 0x3e, 0xe1, 0xc7, 0x16, 0xbe,
  0xe4, 0x49, 0x2f, 0xbd, 0xf0, 0x9f, 0x7e, 0xbe, 0x27, 0x54, 0x21, 0x3f,
  0x1d, 0x1c, 0xe1, 0xbd, 0x4d, 0x53, 0xa8, 0x3d, 0x1c, 0xcd, 0xc2, 0x3b,
  0x48, 0x1e, 0x3b, 0x3e, 0xf0, 0x7e, 0x16, 0x3d, 0xb8, 0x8a, 0xb3, 0xbd,
  0xdf, 0x4a, 0x97, 0x3e, 0x88, 0xb2, 0x47, 0xbe, 0x19, 0x45, 0xdb, 0x3c,
  0xb3, 0xa9, 0x7e, 0xbe, 0x57, 0x63, 0xfb, 0x3e, 0xdd, 0xc3, 0x36, 0x3e,
  0xa5, 0x5b, 0x5c, 0xbe, 0xc8, 0x07, 0x1d, 0xbe, 0x80, 0x0c, 0x08, 0xbe,
  0xd2, 0x4c, 0xa6, 0x3e, 0x2b, 0xe1, 0x7f, 0xbe, 0x46, 0x4f, 0x92, 0xbc,
  0x98, 0x34, 0x71, 0x3b, 0xf5, 0xb4, 0x04, 0x3e, 0xb7, 0xda, 0x53, 0xbd,
  0xef, 0x20, 0x2e, 0xbe, 0x89, 0x04, 0x1e, 0x3e, 0x28, 0x48, 0x0c, 0xbd,
  0x32, 0x87, 0x2a, 0x3e, 0xaa, 0x6a, 0x8c, 0xbe, 0x73, 0x7c, 0x4d, 0x3e,
  0x58, 0x52, 0x1e, 0x3c, 0xac, 0x1e, 0xf6, 0xbd, 0x41, 0x18, 0x88, 0xbe,
  0xf2, 0x2c, 0x97, 0x3d, 0x37, 0xb8, 0x1d, 0x3e, 0x89, 0x64, 0x39, 0x3d,
  0xf6, 0xf3, 0x7c, 0xbc, 0xe0, 0x8c, 0x17, 0x3d, 0x6c, 0x3f, 0xae, 0xbc,
  0x9e, 0xb9, 0xaf, 0xbd, 0x41, 0x86, 0xad, 0xbe, 0xa5, 0xf4, 0x8c, 0xbe,
  0x2a, 0x1a, 0x89, 0xbe, 0xc4, 0xb7, 0xac, 0xbe, 0xd2, 0xd0, 0xbd, 0xbe,
  0x53, 0x9b, 0x31, 0xbe, 0xf6, 0x3a, 0x53, 0xbe, 0x9b, 0xc2, 0x39, 0xbf,
  0xb5, 0x53, 0x46, 0xbe, 0xed, 0x4b, 0x5b, 0xbd, 0xcb, 0x38, 0x9a, 0xbd,
  0x6e, 0x1b, 0x73, 0xbf, 0xed, 0x85, 0xfd, 0xbd, 0x97, 0x7e, 0x75, 0xbe,
  0xe5, 0x97, 0x40, 0xbe, 0xa1, 0x80, 0xf8, 0xbe, 0x89, 0xcc, 0xae, 0xbd,
  0xf6, 0x29, 0x37, 0x3e, 0x0f, 0xa7, 0xce, 0x3d, 0x70, 0x64, 0x00, 0x3e,
  0x70, 0x5f, 0xbd, 0xbc, 0x61, 0xd0, 0x81, 0x3e, 0xc7, 0xd0, 0x15, 0xbd,
  0x4f, 0x2f, 0xcb, 0xbe, 0xb0, 0x8a, 0x28, 0x3b, 0x03, 0xd5, 0x06, 0xbe,
  0xca, 0x7b, 0x72, 0x3f, 0xec, 0xc0, 0x27, 0xbf, 0xf3, 0xb7, 0x22, 0x3d,
  0xfd, 0x73, 0x80, 0xbd, 0x75, 0xd6, 0x31, 0xbd, 0x22, 0xaa, 0x1d, 0xbf,
  0xcb, 0x5c, 0x7a, 0xbd, 0x3c, 0x4c, 0x86, 0x3e, 0x8b, 0x88, 0xf7, 0xbd,
  0xea, 0x7d, 0xd2, 0x3d, 0x0c, 0xf6, 0x23, 0xbe, 0x26, 0xa6, 0x85, 0x3e,
  0x23, 0xfa, 0x21, 0x3e, 0x51, 0x17, 0xcb, 0xbe, 0xc0, 0x38, 0x1c, 0x3d,
  0x5a, 0x23, 0xa8, 0xbe, 0x36, 0x8c, 0x22, 0x3f, 0x12, 0x46, 0x25, 0xbf,
  0xca, 0xa7, 0xaa, 0xbd, 0x7e, 0x20, 0xec, 0xba, 0x6a, 0x44, 0xb6, 0xbd,
  0xfd, 0x77, 0x25, 0xbf, 0xce, 0x87, 0xfd, 0xbd, 0x7e, 0x88, 0x0b, 0x3f,
  0xa2, 0xfc, 0x86, 0xbe, 0x6b, 0xaa, 0xbb, 0xbe, 0x9b, 0xc8, 0x67, 0xbe,
  0x40, 0xbb, 0xb2, 0xbd, 0x62, 0x92, 0xbd, 0xbd, 0x02, 0xff, 0x1e, 0xbf,
  0x35, 0xb1, 0x71, 0xbe, 0x94, 0x7b, 0x7e, 0xbe, 0xce, 0x74, 0x1a, 0x3f,
  0xcc, 0xa3, 0x41, 0xbf, 0x8f, 0x15, 0x46, 0xbe, 0x68, 0x81, 0xb7, 0xbd,
  0x22, 0x80, 0x79, 0xbe, 0xfe, 0x44, 0x1c, 0xbf, 0xd3, 0xcd, 0xe9, 0xbd,
  0x62, 0xe4, 0xe5, 0xbb, 0xa5, 0x32, 0xbf, 0xbe, 0xcd, 0x92, 0x75, 0x3c,
  0x5a, 0xae, 0x0e, 0xbc, 0xfa, 0x2d, 0x94, 0x3c, 0x55, 0xfa, 0x65, 0x3e,
  0x27, 0x74, 0x4d, 0xbd, 0xb1, 0x2d, 0x54, 0xbe, 0x90, 0x36, 0x6f, 0x3d,
  0x32, 0x6a, 0x5d, 0x3f, 0x10, 0x45, 0x20, 0xbf, 0x7f, 0x94, 0x4a, 0xbe,
  0x78, 0x22, 0xe2, 0xbd, 0x41, 0x5b, 0x33, 0xbe, 0x19, 0x70, 0xc0, 0xbe,
  0x04, 0x53, 0xc0, 0x3d, 0x40, 0xfd, 0x21, 0xbe, 0x7a, 0x97, 0xf7, 0x3d,
  0x73, 0x5f, 0x17, 0xbe, 0xec, 0xbc, 0x37, 0x3e, 0xd2, 0xf0, 0xfe, 0xbd,
  0xbe, 0xf4, 0x01, 0xbe, 0x15, 0x68, 0x60, 0x3d, 0x1e, 0x8f, 0x86, 0xbd,
  0xe0, 0x6d, 0x02, 0x3e, 0x75, 0xdb, 0xfe, 0x3e, 0x78, 0x3b, 0xae, 0xbe,
  0xf7, 0xed, 0xe5, 0x3d, 0xbd, 0x3e, 0xc3, 0xbd, 0xd4, 0x77, 0x39, 0x3e,
  0xc3, 0xf3, 0x14, 0xbe, 0x7c, 0xff, 0x7a, 0xbc, 0xd8, 0x6a, 0xd9, 0xbd,
  0x10, 0x33, 0xe8, 0x3d, 0x84, 0xe0, 0x9b, 0xbe, 0x26, 0x61, 0xd8, 0x3c,
  0x69, 0xa0, 0x53, 0xbe, 0x4c, 0xc2, 0x3d, 0x3e, 0xc9, 0x94, 0xfe, 0xbd,
  0xec, 0xa2, 0xa5, 0xbe, 0xf3, 0xb1, 0xae, 0x3e, 0x53, 0xab, 0x75, 0x3e,
  0xfe, 0xc6, 0xdc, 0xbe, 0x84, 0x45, 0xc0, 0xbd, 0x5d, 0x4c, 0x1d, 0xbe,
  0x8f, 0x30, 0x2f, 0x3d, 0xb8, 0x0d, 0x48, 0xbe, 0x56, 0x7c, 0x9a, 0x3d,
  0x87, 0x46, 0xfd, 0x3c, 0xab, 0xd7, 0x59, 0xbe, 0x49, 0x96, 0xa2, 0xbe,
  0xae, 0x3e, 0xa0, 0xbc, 0x24, 0xbf, 0xce, 0xbd, 0xa2, 0xce, 0x72, 0xbe,
  0x70, 0x54, 0x9c, 0xbe, 0x2e, 0xfa, 0x61, 0xbe, 0xac, 0x0b, 0x04, 0xbe,
  0xc4, 0x1d, 0x53, 0xbd, 0xd6, 0xe5, 0x0c, 0xbe, 0x2c, 0x84, 0xbb, 0xbe,
  0xe3, 0x83, 0xe0, 0xbe, 0x5a, 0x5d, 0x29, 0xbe, 0x78, 0x0c, 0x1c, 0xbe,
  0x68, 0x2e, 0x48, 0xbe, 0x04, 0x71, 0x35, 0x3e, 0xcf, 0xa3, 0x15, 0xbe,
  0x2e, 0x5a, 0x3d, 0xbe, 0x10, 0xaf, 0x97, 0xbe, 0x6d, 0x93, 0x0c, 0x3e,
  0x49, 0xe9, 0x0a, 0x3f, 0x0f, 0x1a, 0xb4, 0xbe, 0x82, 0x7d, 0xb9, 0xbe,
  0xee, 0x75, 0x45, 0xbe, 0xab, 0x3c, 0x80, 0x3e, 0xac, 0x2c, 0xde, 0xbe,
  0x10, 0xeb, 0x82, 0xbe, 0x80, 0x9e, 0x8c, 0x3c, 0xd6, 0xd4, 0x8e, 0xbe,
  0x15, 0x49, 0x3a, 0xbe, 0xc8, 0x54, 0x19, 0xbe, 0x35, 0xab, 0x98, 0x3d,
  0xb1, 0x30, 0xe1, 0x3b, 0x74, 0x0c, 0x63, 0xbd, 0x97, 0x02, 0x4b, 0xbe,
  0x01, 0xf1, 0x58, 0x3e, 0x95, 0x94, 0xe2, 0x3d, 0x47, 0x8d, 0x82, 0xbe,
  0xe6, 0x41, 0x94, 0x3d, 0xca, 0x3c, 0xa2, 0x3d, 0x3a, 0x48, 0x7f, 0x3f,
  0x25, 0x22, 0xf1, 0xbe, 0x38, 0x35, 0x77, 0xbe, 0x40, 0x89, 0x84, 0xbe,
  0xcf, 0x03, 0x99, 0x3d, 0x02, 0xdf, 0xa1, 0xbe, 0xcf, 0x26, 0x91, 0xbd,
  0xab, 0x9a, 0xdb, 0x3e, 0xf6, 0xe6, 0x33, 0xbe, 0x41, 0xb8, 0xec, 0xbd,
  0x4a, 0xfa, 0xb3, 0xbc, 0xf6, 0x21, 0xb6, 0xbd, 0x3b, 0xb6, 0xb9, 0x3e,
  0xd0, 0xae, 0x89, 0xbe, 0x66, 0xdd, 0x86, 0xbe, 0xa4, 0xbe, 0x67, 0x3d,
  0x32, 0x6b, 0x0d, 0x3f, 0x69, 0x7f, 0x01, 0xbf, 0x8e, 0x72, 0xab, 0xbd,
  0x81, 0x56, 0x96, 0xbe, 0xea, 0xf9, 0x11, 0x3b, 0x42, 0xb8, 0x3d, 0xbe,
  0x57, 0x30, 0x5d, 0xbe, 0x43, 0xc2, 0x03, 0x3e, 0x03, 0x9d, 0x91, 0x3c,
  0xa1, 0xe2, 0x7d, 0xbe, 0x32, 0x4f, 0x18, 0x3d, 0x13, 0x40, 0xcc, 0x3d,
  0x3c, 0xc6, 0x17, 0x3f, 0x6b, 0xd0, 0x17, 0xbe, 0x10, 0xae, 0x18, 0xbe,
  0xaf, 0x22, 0x05, 0x3d, 0x80, 0x6b, 0x83, 0x3e, 0xa6, 0x08, 0x05, 0xbf,
  0xf8, 0x01, 0xab, 0xbd, 0xed, 0xdb, 0xcc, 0xbd, 0x9b, 0xe2, 0x73, 0xbe,
  0x16, 0x57, 0x65, 0xbe, 0xe1, 0xc8, 0x8d, 0xbe, 0x0c, 0xbe, 0xcc, 0x3d,
  0x98, 0x0f, 0xef, 0x3c, 0x71, 0xad, 0x40, 0xbe, 0x45, 0xdb, 0x91, 0xbe,
  0xf8, 0x6e, 0xc4, 0x3d, 0x7c, 0x60, 0xe6, 0x3d, 0x06, 0x67, 0x65, 0xbe,
  0xb7, 0x89, 0x83, 0xbc, 0x48, 0xbc, 0x2b, 0x3d, 0x8a, 0x68, 0x8d, 0x3e,
  0x29, 0xb9, 0xd7, 0xbe, 0x66, 0x7b, 0x78, 0xbe, 0x14, 0xd4, 0x87, 0xbe,
  0x08, 0x7a, 0x29, 0xbe, 0x65, 0x45, 0xa1, 0xbe, 0x7b, 0x35, 0xf2, 0xbb,
  0xa4, 0x63, 0x36, 0xbd, 0x8f, 0x59, 0xb8, 0xbd, 0xd0, 0x1a, 0x84, 0xbe,
  0x5d, 0x80, 0x19, 0xbc, 0x70, 0x89, 0x2f, 0x3e, 0x93, 0x5f, 0x70, 0xbe,
  0xd9, 0xe6, 0xe4, 0xbe, 0x40, 0x6b, 0x88, 0xbe, 0x91, 0x7b, 0x36, 0xbe,
  0x4f, 0xcc, 0x37, 0x3e, 0x6e, 0x6b, 0xb9, 0xbe, 0x15, 0xc2, 0x63, 0xbe,
  0x89, 0x0c, 0x80, 0xbd, 0xf1, 0x2e, 0xbf, 0xbe, 0x96, 0xeb, 0x3b, 0xbe,
  0x8d, 0x2a, 0x44, 0x3d, 0xb2, 0x30, 0x76, 0xbf, 0x20, 0xfd, 0x1e, 0xbf,
  0xb4, 0x9e, 0x42, 0xbf, 0xb7, 0xbd, 0xae, 0xbe, 0xea, 0x71, 0x01, 0xbe,
  0x9a, 0x1a, 0x6c, 0x3c, 0x54, 0xfe, 0xa0, 0xbf, 0x61, 0x83, 0x12, 0xbd,
  0x58, 0x4e, 0x8b, 0xbe, 0xaa, 0xf8, 0x61, 0xbe, 0x81, 0x83, 0xa5, 0xbf,
  0xa9, 0xdf, 0x8c, 0xbe, 0xc0, 0x1d, 0xa5, 0xbc, 0x72, 0x14, 0xa0, 0xbd,
  0x60, 0xd3, 0xd3, 0xbe, 0xf5, 0xd2, 0xca, 0xbe, 0x51, 0x10, 0x8f, 0xbd,
  0xdc, 0x45, 0xc9, 0xbe, 0x02, 0xdd, 0x7e, 0xbb, 0xe4, 0xe8, 0x4a, 0xbd,
  0x2d, 0x13, 0x60, 0x3d, 0xef, 0xec, 0xe7, 0xbd, 0x81, 0xd5, 0xc6, 0xbe,
  0x1c, 0x3e, 0xac, 0x3c, 0xeb, 0xa5, 0x0a, 0xbf, 0x49, 0xa7, 0x56, 0xbd,
  0xdd, 0x07, 0x80, 0xbf, 0x81, 0xf4, 0x3c, 0xbe, 0xbe, 0x5e, 0xc2, 0xbd,
  0x82, 0xab, 0x31, 0xbd, 0xed, 0xcc, 0xa3, 0xbe, 0x29, 0x49, 0x16, 0xbe,
  0x35, 0xe6, 0x4e, 0xbe, 0x91, 0xef, 0x9c, 0xbe, 0x78, 0x24, 0x32, 0xbd,
  0x1a, 0x05, 0x3a, 0xbd, 0x45, 0xbf, 0xc8, 0x3d, 0xcf, 0x47, 0xa9, 0xbe,
  0x47, 0x99, 0x47, 0xbf, 0x35, 0x36, 0xa8, 0xbb, 0x86, 0xce, 0xb0, 0xbe,
  0xcb, 0xe9, 0xe7, 0xbd, 0x35, 0x8c, 0x6d, 0xbf, 0xde, 0x37, 0x50, 0xbe,
  0xe2, 0x4e, 0x9c, 0x3c, 0x09, 0xf6, 0xe5, 0xbc, 0xc7, 0x33, 0xef, 0xbe,
  0x8f, 0x5b, 0xb1, 0xbc, 0x0f, 0x8a, 0x88, 0xbd, 0x30, 0x1e, 0x03, 0xbf,
  0x2d, 0xe3, 0xa1, 0xbe, 0x7e, 0x9e, 0xab, 0xbe, 0x6e, 0xc2, 0xb9, 0xbe,
  0xed, 0x3b, 0x4a, 0xbd, 0x8d, 0x26, 0x4f, 0xbf, 0x72, 0x84, 0x41, 0xbd,
  0x3b, 0x49, 0x8f, 0xbe, 0x78, 0x4d, 0x85, 0x3e, 0x29, 0x81, 0x8a, 0xbf,
  0xbf, 0x4e, 0x15, 0xbe, 0xb7, 0xa6, 0xa9, 0xbd, 0x59, 0x69, 0x86, 0xbe,
  0xd4, 0x8d, 0xe2, 0xbe, 0x4b, 0x9a, 0xae, 0xbe, 0x4b, 0x22, 0xf2, 0xbe,
  0x7f, 0xdd, 0x2c, 0xbf, 0xe5, 0x08, 0xcb, 0xbd, 0x83, 0x08, 0x43, 0xbc,
  0xde, 0xf0, 0xf6, 0xbd, 0x74, 0x62, 0x41, 0x3e, 0x8f, 0x34, 0xa7, 0xbd,
  0xce, 0x1e, 0x1e, 0x3c, 0x47, 0x55, 0xe0, 0x3d, 0x6f, 0xe7, 0x36, 0x3f,
  0x18, 0x4c, 0x65, 0xbe, 0x59, 0x32, 0xe6, 0xbd, 0xb2, 0xd0, 0xaa, 0xbd,
  0x81, 0x88, 0xbe, 0x3b, 0x88, 0xb1, 0xef, 0xbe, 0x7b, 0xf7, 0x9f, 0x3d,
  0x6e, 0x17, 0xb7, 0xbe, 0xc5, 0x40, 0xb7, 0x3d, 0x96, 0x46, 0xb3, 0xbe,
  0xf8, 0x0f, 0x9d, 0x3d, 0x88, 0x86, 0x4a, 0x3e, 0x8b, 0x8b, 0x20, 0x3d,
  0x08, 0x2e, 0x53, 0xbd, 0x16, 0x63, 0x11, 0xbd, 0xe2, 0x97, 0x9d, 0x3d,
  0x13, 0xa4, 0xfc, 0x3e, 0x76, 0x27, 0x6d, 0xbe, 0x12, 0xff, 0x6a, 0x3e,
  0xc4, 0xda, 0xc1, 0xbd, 0xe4, 0xcd, 0x24, 0x3e, 0x28, 0x6a, 0x0b, 0xbf,
  0x23, 0x4f, 0x7c, 0x3e, 0xd1, 0x19, 0x2d, 0xbe, 0xe1, 0xa5, 0x48, 0x3d,
  0x80, 0x11, 0xbd, 0xbe, 0x4f, 0x10, 0x01, 0x3c, 0x1b, 0x5e, 0xab, 0x3c,
  0x8f, 0xd6, 0x96, 0x3e, 0xe7, 0xed, 0x31, 0x3e, 0x27, 0x05, 0x64, 0x3d,
  0xeb, 0x31, 0x9e, 0x3e, 0x66, 0x31, 0x57, 0x3e, 0xa7, 0xc2, 0x8d, 0x3d,
  0x65, 0x83, 0xd9, 0x3b, 0x35, 0x23, 0xf6, 0xbc, 0x1a, 0x49, 0x10, 0x3e,
  0x13, 0x6a, 0x13, 0x3c, 0xac, 0xfe, 0x86, 0x3e, 0x97, 0x90, 0xde, 0xbc,
  0xac, 0x12, 0xb4, 0xbd, 0xaa, 0x9b, 0xad, 0xbe, 0x7a, 0x68, 0x18, 0xbe,
  0x90, 0xd6, 0x9f, 0x3d, 0x50, 0x5f, 0x09, 0x3d, 0x31, 0xf9, 0xec, 0xbe,
  0x96, 0x7d, 0x60, 0x3e, 0x36, 0x25, 0x36, 0xbd, 0x66, 0xa8, 0x44, 0x3e,
  0x9c, 0x29, 0xf7, 0x3d, 0x5e, 0x4c, 0x05, 0xbd, 0x96, 0x4f, 0xab, 0x3c,
  0xed, 0xa9, 0x47, 0xbc, 0x21, 0xef, 0xda, 0x3d, 0x06, 0x30, 0xc7, 0xbe,
  0xae, 0xa4, 0x5d, 0x3e, 0xb8, 0x3c, 0xf8, 0x3c, 0x88, 0x30, 0xbf, 0x3d,
  0x5d, 0xde, 0xc2, 0xbd, 0x23, 0xf0, 0xa9, 0xbd, 0x12, 0x67, 0x8a, 0x3c,
  0x59, 0xd4, 0x41, 0xbf, 0xd9, 0xc1, 0x08, 0x3d, 0xe1, 0xbe, 0x34, 0x3e,
  0xf8, 0x18, 0xa3, 0x3e, 0x7d, 0x00, 0x0c, 0xbe, 0x49, 0x41, 0x91, 0xbe,
  0x2b, 0xa7, 0x4c, 0x3c, 0xa0, 0x71, 0xa4, 0x3d, 0x81, 0x72, 0x3c, 0xbd,
  0x9d, 0x2a, 0x85, 0xbe, 0xb7, 0x91, 0xac, 0x3e, 0xce, 0xf1, 0x16, 0x3d,
  0x56, 0xf9, 0x23, 0x3e, 0x8a, 0x63, 0x80, 0x3b, 0x09, 0x1d, 0x21, 0x3e,
  0x05, 0x54, 0xe9, 0x3d, 0xb6, 0xc7, 0xff, 0xbe, 0x55, 0x40, 0xc3, 0xbb,
  0xd9, 0x74, 0x1c, 0xbd, 0xca, 0x97, 0xa3, 0x3e, 0x44, 0x71, 0x13, 0xbe,
  0x36, 0x6e, 0x8c, 0xbd, 0x4f, 0x95, 0x24, 0x3d, 0xe2, 0x5e, 0x11, 0x3e,
  0xd3, 0x63, 0x74, 0xbd, 0xe1, 0x82, 0x3b, 0xbe, 0x8b, 0x29, 0x02, 0x3e,
  0xa7, 0xf1, 0x8b, 0xbe, 0xfd, 0x5f, 0x22, 0xbe, 0xa0, 0x7c, 0x19, 0xbe,
  0xff, 0xbe, 0x07, 0x3e, 0x37, 0x61, 0x1d, 0x3e, 0x19, 0x3a, 0x11, 0xbf,
  0x84, 0x2b, 0x27, 0x3d, 0x76, 0xcb, 0xab, 0xbd, 0x28, 0x7c, 0x9d, 0x3e,
  0xe2, 0x9d, 0xb4, 0xbd, 0x77, 0xca, 0x50, 0xbe, 0x86, 0x24, 0xe2, 0x3b,
  0x60, 0xc5, 0x39, 0x3d, 0xd6, 0xa7, 0xfe, 0xbc, 0x28, 0xc1, 0x41, 0xbe,
  0xc9, 0x13, 0x56, 0x3e, 0x26, 0x82, 0x58, 0xb9, 0x2e, 0x9f, 0xe7, 0x3c,
  0x26, 0x04, 0xb0, 0xbd, 0x3f, 0x4b, 0x61, 0xbe, 0xf1, 0x61, 0xa4, 0x3d,
  0x5a, 0x5a, 0x26, 0xbf, 0xd4, 0x32, 0xc9, 0x3c, 0xc1, 0x71, 0xbf, 0xbd,
  0x39, 0x7d, 0xfd, 0x3e, 0x41, 0x57, 0x0b, 0xbe, 0x8a, 0x26, 0x0d, 0xbd,
  0xd6, 0x91, 0x98, 0x3c, 0x50, 0x1f, 0xa6, 0x3d, 0x4b, 0x07, 0x2c, 0x3d,
  0xeb, 0x4a, 0x3e, 0xbe, 0x90, 0xf6, 0xf8, 0x3d, 0x7f, 0x31, 0x4d, 0xbe,
  0xb3, 0xee, 0x81, 0xbe, 0x5d, 0x14, 0xc2, 0xbe, 0x2b, 0x4c, 0x22, 0xbe,
  0x44, 0x02, 0x89, 0x3c, 0x13, 0xd8, 0x8d, 0xbf, 0x84, 0x40, 0x21, 0x3d,
  0x26, 0x74, 0xd5, 0xbd, 0x69, 0x48, 0x87, 0x3e, 0x29, 0xe4, 0x46, 0xbe,
  0x66, 0x0a, 0x65, 0xbd, 0x02, 0x82, 0xe0, 0x3c, 0xf0, 0xe7, 0x65, 0x3e,
  0x91, 0x14, 0xb3, 0x3c, 0x27, 0xb9, 0x2c, 0xbe, 0x04, 0x55, 0x47, 0x3d,
  0x57, 0x68, 0x21, 0x3a, 0xe1, 0xb0, 0x6e, 0x3d, 0xde, 0x62, 0xfe, 0xbc,
  0x1c, 0x5d, 0x85, 0xbe, 0xe1, 0x9b, 0xe0, 0xbc, 0x77, 0xd5, 0xf3, 0xbd,
  0x7c, 0x31, 0x04, 0x3d, 0x91, 0xec, 0x83, 0xbe, 0x26, 0x4a, 0x1e, 0x3d,
  0x54, 0xdc, 0xc2, 0x3c, 0xc4, 0xde, 0x87, 0x3c, 0x1b, 0xe2, 0x8c, 0x3c,
  0x54, 0xcd, 0x6a, 0x3d, 0x58, 0x62, 0xd6, 0xbc, 0x2d, 0x8b, 0xac, 0xbe,
  0x46, 0xfe, 0xff, 0xff, 0x10, 0x00, 0x00, 0x00, 0x05, 0x00, 0x00, 0x00,
  0x14, 0x00, 0x00, 0x00, 0x2c, 0x00, 0x00, 0x00, 0x02, 0x00, 0x00, 0x00,
  0x10, 0x00, 0x00, 0x00, 0x70, 0x00, 0x00, 0x00, 0x17, 0x00, 0x00, 0x00,
  0x73, 0x65, 0x71, 0x75, 0x65, 0x6e, 0x74, 0x69, 0x61, 0x6c, 0x2f, 0x64,
  0x65, 0x6e, 0x73, 0x65, 0x2f, 0x4d, 0x61, 0x74, 0x4d, 0x75, 0x6c, 0x00,
  0x34, 0xfe, 0xff, 0xff, 0x2a, 0xff, 0xff, 0xff, 0x04, 0x00, 0x00, 0x00,
  0x08, 0x00, 0x00, 0x00, 0xff, 0xff, 0xff, 0xff, 0x70, 0x00, 0x00, 0x00,
  0x00, 0x00, 0x0e, 0x00, 0x18, 0x00, 0x08, 0x00, 0x07, 0x00, 0x0c, 0x00,
  0x10, 0x00, 0x14, 0x00, 0x0e, 0x00, 0x00, 0x00, 0x00, 0x00, 0x00, 0x02,
  0x10, 0x00, 0x00, 0x00, 0x04, 0x00, 0x00, 0x00, 0x10, 0x00, 0x00, 0x00,
  0x2c, 0x00, 0x00, 0x00, 0x01, 0x00, 0x00, 0x00, 0x02, 0x00, 0x00, 0x00,
  0x18, 0x00, 0x00, 0x00, 0x73, 0x65, 0x71, 0x75, 0x65, 0x6e, 0x74, 0x69,
  0x61, 0x6c, 0x2f, 0x66, 0x6c, 0x61, 0x74, 0x74, 0x65, 0x6e, 0x2f, 0x43,
  0x6f, 0x6e, 0x73, 0x74, 0x00, 0x00, 0x00, 0x00, 0x9c, 0xfe, 0xff, 0xff,
  0x92, 0xff, 0xff, 0xff, 0x04, 0x00, 0x00, 0x00, 0x10, 0x00, 0x00, 0x00,
  0x7e, 0xd7, 0xe8, 0xbf, 0x87, 0x9b, 0x30, 0xc0, 0x54, 0x58, 0xb5, 0x3f,
  0x39, 0xac, 0xa3, 0x3f, 0x0a, 0xff, 0xff, 0xff, 0x10, 0x00, 0x00, 0x00,
  0x03, 0x00, 0x00, 0x00, 0x10, 0x00, 0x00, 0x00, 0x3c, 0x00, 0x00, 0x00,
  0x01, 0x00, 0x00, 0x00, 0x04, 0x00, 0x00, 0x00, 0x29, 0x00, 0x00, 0x00,
  0x73, 0x65, 0x71, 0x75, 0x65, 0x6e, 0x74, 0x69, 0x61, 0x6c, 0x2f, 0x64,
  0x65, 0x6e, 0x73, 0x65, 0x5f, 0x31, 0x2f, 0x42, 0x69, 0x61, 0x73, 0x41,
  0x64, 0x64, 0x2f, 0x52, 0x65, 0x61, 0x64, 0x56, 0x61, 0x72, 0x69, 0x61,
  0x62, 0x6c, 0x65, 0x4f, 0x70, 0x00, 0x00, 0x00, 0x60, 0xff, 0xff, 0xff,
  0x00, 0x00, 0x06, 0x00, 0x08, 0x00, 0x04, 0x00, 0x06, 0x00, 0x00, 0x00,
  0x04, 0x00, 0x00, 0x00, 0x40, 0x00, 0x00, 0x00, 0x22, 0x1d, 0x94, 0x3f,
  0x53, 0x17, 0x12, 0xc0, 0x44, 0xa0, 0x0d, 0x3f, 0xfe, 0x3d, 0x13, 0x40,
  0x18, 0x81, 0x7a, 0xbf, 0xd1, 0x04, 0x2e, 0x3f, 0x13, 0x3f, 0xe9, 0xbf,
  0x16, 0xf7, 0xcc, 0xbf, 0xc6, 0x2a, 0xa1, 0xbf, 0xf9, 0xfe, 0x01, 0x3f,
  0x62, 0x88, 0x86, 0x3f, 0xd8, 0xe6, 0xae, 0x3f, 0x94, 0x6e, 0xe5, 0xbe,
  0xcd, 0xc7, 0xe4, 0x3f, 0x5e, 0x79, 0x94, 0xbf, 0x5c, 0xa8, 0xfc, 0x3f,
  0xae, 0xff, 0xff, 0xff, 0x10, 0x00, 0x00, 0x00, 0x02, 0x00, 0x00, 0x00,
  0x10, 0x00, 0x00, 0x00, 0x3c, 0x00, 0x00, 0x00, 0x01, 0x00, 0x00, 0x00,
  0x10, 0x00, 0x00, 0x00, 0x27, 0x00, 0x00, 0x00, 0x73, 0x65, 0x71, 0x75,
  0x65, 0x6e, 0x74, 0x69, 0x61, 0x6c, 0x2f, 0x64, 0x65, 0x6e, 0x73, 0x65,
  0x2f, 0x42, 0x69, 0x61, 0x73, 0x41, 0x64, 0x64, 0x2f, 0x52, 0x65, 0x61,
  0x64, 0x56, 0x61, 0x72, 0x69, 0x61, 0x62, 0x6c, 0x65, 0x4f, 0x70, 0x00,
  0x04, 0x00, 0x06, 0x00, 0x04, 0x00, 0x00, 0x00, 0x00, 0x00, 0x0e, 0x00,
  0x14, 0x00, 0x04, 0x00, 0x00, 0x00, 0x08, 0x00, 0x0c, 0x00, 0x10, 0x00,
  0x0e, 0x00, 0x00, 0x00, 0x10, 0x00, 0x00, 0x00, 0x01, 0x00, 0x00, 0x00,
  0x1c, 0x00, 0x00, 0x00, 0x2c, 0x00, 0x00, 0x00, 0x04, 0x00, 0x00, 0x00,
  0x01, 0x00, 0x00, 0x00, 0x40, 0x00, 0x00, 0x00, 0x03, 0x00, 0x00, 0x00,
  0x01, 0x00, 0x00, 0x00, 0x0c, 0x00, 0x00, 0x00, 0x63, 0x6f, 0x6e, 0x76,
  0x32, 0x64, 0x5f, 0x69, 0x6e, 0x70, 0x75, 0x74, 0x00, 0x00, 0x00, 0x00,
  0xfc, 0xff, 0xff, 0xff, 0x04, 0x00, 0x04, 0x00, 0x04, 0x00, 0x00, 0x00
};

unsigned int model_tflite_len = 12384;// Fill the int in `src/model.cc` here